<pad>	0
<s>	0
</s>	0
<unk>	0
。	-2.85694
、	-3.05244
の	-3.26785
▁	-3.60745
を	-3.96287
が	-4.13634
に	-4.14372
は	-4.19701
と	-4.39039
」	-4.48252
▁「	-4.53203
も	-4.88494
から	-5.07511
で	-5.17381
か	-5.36079
な	-5.4172
る	-5.55065
して	-5.66029
した	-5.66372
って	-5.87082
い	-5.88035
た	-5.91106
へ	-5.9656
し	-5.97529
する	-5.97679
て	-5.99466
り	-5.9961
である	-6.03213
その	-6.0551
ら	-6.075
この	-6.08605
く	-6.24712
き	-6.29455
だ	-6.2972
さ	-6.33438
った	-6.3358
一	-6.36287
いた	-6.37703
また	-6.40638
御	-6.43183
ない	-6.43488
でも	-6.48446
す	-6.49951
という	-6.52088
ある	-6.53246
ね	-6.53487
いる	-6.54999
や	-6.55761
う	-6.56361
よ	-6.5986
には	-6.62272
お	-6.63181
人	-6.63884
と云う	-6.6516
であった	-6.66486
時	-6.66801
自分の	-6.77093
そう	-6.77533
まで	-6.84245
わ	-6.85578
事	-6.85946
出	-6.87989
んだ	-6.88427
見	-6.92532
している	-6.93421
▁しかし	-6.93671
「	-6.97609
ん	-6.99419
だから	-6.99487
なら	-7.01064
大	-7.01708
なかった	-7.0256
いて	-7.07335
ま	-7.08819
がある	-7.10737
ように	-7.11162
手	-7.11393
あ	-7.12429
気	-7.14039
ような	-7.148
上	-7.15774
▁彼は	-7.16881
として	-7.16984
▁その	-7.19843
何	-7.20404
のです	-7.20487
っている	-7.20816
ので	-7.21378
になる	-7.21624
二	-7.21758
すぐ	-7.22142
▁そうして	-7.2227
来た	-7.22468
よく	-7.23015
まだ	-7.23467
み	-7.23818
少し	-7.24065
ながら	-7.24257
です	-7.25335
今	-7.26533
▁私は	-7.26678
じゃ	-7.27769
下	-7.2804
ただ	-7.28193
不	-7.28494
出した	-7.29004
▁自分は	-7.29056
なる	-7.29078
日	-7.29128
物	-7.30048
もう	-7.31444
――	-7.3184
ばかり	-7.32846
▁――	-7.33237
事を	-7.3326
無	-7.33711
にも	-7.34152
彼は	-7.34943
行く	-7.3582
つ	-7.36302
通り	-7.36396
だろう	-7.37485
とも	-7.37647
口	-7.38342
▁けれども	-7.38627
彼の	-7.38838
さえ	-7.39058
え	-7.39718
ほど	-7.39746
三	-7.40187
のである	-7.42063
より	-7.42325
んで	-7.42589
中	-7.42655
人の	-7.44211
め	-7.44416
女	-7.46143
のは	-7.46198
来る	-7.4843
ば	-7.48601
つて	-7.49098
生	-7.49357
それを	-7.49382
私は	-7.49683
こう	-7.50313
ちょっと	-7.50446
間	-7.50454
分	-7.51124
ました	-7.51702
になって	-7.51834
になった	-7.52155
む	-7.52224
▁この	-7.53246
向	-7.53263
前	-7.53466
ー	-7.54226
の上に	-7.54244
いい	-7.54678
ず	-7.54741
のように	-7.54898
け	-7.54998
々	-7.55096
家	-7.55649
れ	-7.56251
後	-7.56824
所	-7.57882
云う	-7.57896
ち	-7.5816
私の	-7.58943
小	-7.58959
もの	-7.59024
していた	-7.59394
でしょう	-7.59633
本	-7.59753
ぬ	-7.60967
山	-7.61406
こ	-7.61838
▁すると	-7.61877
なり	-7.6205
好い	-7.62116
君	-7.62305
だって	-7.63332
よう	-7.63946
者	-7.64823
年	-7.64829
さん	-7.65184
金	-7.65347
......」	-7.66493
しい	-7.6668
目	-7.66759
水	-7.6753
とは	-7.68329
通	-7.68967
なく	-7.69567
こんな	-7.71256
長	-7.72629
夜	-7.73061
じ	-7.73106
外	-7.73335
だけ	-7.73547
先	-7.73655
何か	-7.73663
ている	-7.73782
行	-7.73969
んです	-7.74178
ます	-7.74319
せ	-7.74438
ン	-7.74549
地	-7.74759
見た	-7.74763
と云った	-7.75062
真	-7.75222
話	-7.7524
用	-7.75299
▁ただ	-7.75569
訳	-7.7664
一つ	-7.76821
月	-7.77018
事は	-7.7706
あった	-7.77163
男	-7.772
出す	-7.77225
まあ	-7.78068
ものは	-7.7848
心	-7.78584
らない	-7.78666
方	-7.79078
合	-7.79239
られた	-7.79542
足	-7.79913
会	-7.81005
っ	-7.81144
私	-7.81244
つた	-7.8125
顔を	-7.81765
れば	-7.8191
よりも	-7.82045
来	-7.82269
自分	-7.82309
気が	-7.82665
そんな	-7.8271
とか	-7.83844
手を	-7.84187
出して	-7.84368
はない	-7.84372
と云って	-7.85017
人間	-7.85434
らしい	-7.85716
あの	-7.86028
来て	-7.86154
顔	-7.86427
これ	-7.87544
ふ	-7.87561
見ると	-7.87617
ええ	-7.87644
もない	-7.87669
方が	-7.87794
力	-7.87889
された	-7.88075
ひ	-7.88077
点	-7.88249
急に	-7.88711
空	-7.88923
返	-7.89038
断	-7.89771
っていた	-7.89776
前に	-7.90419
子	-7.90487
なければ	-7.90562
大きな	-7.90682
ど	-7.9097
をして	-7.91493
天	-7.91684
眼	-7.93427
だと	-7.94046
まま	-7.94571
其	-7.94856
一人	-7.94959
の中に	-7.95075
▁代助は	-7.95077
それ	-7.95143
云った	-7.96203
当	-7.9621
しない	-7.9646
を見	-7.96468
眼を	-7.966
ろ	-7.97226
では	-7.97394
考え	-7.97648
重	-7.97787
名	-7.97956
書	-7.98335
▁それから	-7.98587
しく	-7.99045
白	-7.99566
じゃないか	-7.99721
道	-7.99955
変	-8.00135
れる	-8.00381
先生	-8.00489
内	-8.00689
に対して	-8.01449
ぶ	-8.01739
のない	-8.01926
木	-8.02032
夫	-8.0267
石	-8.03571
▁三四郎は	-8.03701
様	-8.03834
体	-8.03846
れた	-8.0406
にして	-8.04549
始めて	-8.04771
着	-8.04954
ぐ	-8.05149
かった	-8.05196
思い	-8.05365
まるで	-8.05414
余	-8.05447
花	-8.05612
のために	-8.05803
全く	-8.05975
と思う	-8.06096
▁だから	-8.06316
高	-8.06341
人が	-8.06356
行った	-8.06693
ものが	-8.07212
平	-8.07486
くる	-8.0766
あなた	-8.07728
けれども	-8.0833
同じ	-8.08722
られる	-8.08748
いや	-8.08983
十	-8.09162
言	-8.09612
入	-8.09673
どう	-8.09723
であります	-8.09912
ると	-8.09932
片	-8.09994
明	-8.10273
僕	-8.10367
聞いた	-8.10499
どんな	-8.10785
みんな	-8.10873
有	-8.10908
ろう	-8.11109
ご	-8.11214
取り	-8.11794
かい	-8.11903
それが	-8.12009
四	-8.12013
早く	-8.1205
、「	-8.12431
人は	-8.12508
ために	-8.12623
切	-8.12841
りと	-8.12986
くらい	-8.13132
すると	-8.13455
込んで	-8.13608
」「	-8.13668
的	-8.14062
見る	-8.14122
かも知れない	-8.14213
中に	-8.1442
をした	-8.14443
起	-8.14483
時に	-8.14536
ス	-8.14711
頭	-8.14905
ため	-8.15429
それで	-8.15742
親	-8.15855
ではない	-8.15873
母	-8.15957
突然	-8.16002
直	-8.16412
じゃない	-8.16473
ぎ	-8.16475
実	-8.16746
引き	-8.16834
字	-8.1687
いない	-8.17229
出る	-8.17709
あまり	-8.17808
めて	-8.17875
行って	-8.17982
うちに	-8.18303
語	-8.18436
ぜ	-8.18608
があった	-8.18741
風	-8.18962
問題	-8.18998
のある	-8.19019
ものを	-8.19048
そ	-8.1905
自分は	-8.19086
事が	-8.19285
屋	-8.19294
なかつた	-8.19447
味	-8.19596
えて	-8.19619
五	-8.19936
横	-8.19993
引	-8.20081
寝	-8.20134
僕は	-8.20659
について	-8.20684
好	-8.20856
表	-8.21207
かな	-8.21557
元	-8.2177
古	-8.21874
八	-8.22274
のか	-8.22326
たる	-8.22517
をする	-8.22833
落	-8.23329
ところ	-8.23471
色	-8.23588
此	-8.23696
世	-8.23785
町	-8.23906
がない	-8.24065
▁それで	-8.24169
女の	-8.24562
の事	-8.24665
んだから	-8.24746
たい	-8.24969
画	-8.25116
こと	-8.2537
の方へ	-8.25386
奥さん	-8.2595
いくら	-8.2618
半	-8.26547
取	-8.26587
正	-8.26607
時々	-8.274
度	-8.27516
など	-8.27585
得	-8.27604
我	-8.2761
つい	-8.27756
言葉	-8.27842
立って	-8.28005
ル	-8.28113
二人	-8.28548
面	-8.28692
指	-8.29134
ません	-8.29135
ようやく	-8.29194
あり	-8.29214
なぜ	-8.29331
楽	-8.29478
黒	-8.29864
立	-8.29989
めた	-8.30077
作	-8.30318
事実	-8.30353
代	-8.30463
ですか	-8.30733
形	-8.3092
渡	-8.31132
性	-8.31564
必要	-8.31637
両	-8.31684
解	-8.31703
いつ	-8.31951
夢	-8.32269
そうに	-8.32396
食	-8.32622
意味	-8.32629
悪	-8.32789
云い	-8.32793
君は	-8.32802
気に	-8.33104
のような	-8.33308
うん	-8.33367
相	-8.33746
かね	-8.33759
命	-8.34
父	-8.34139
場	-8.34458
僕の	-8.34463
彼	-8.34744
客	-8.3475
君の	-8.34907
しばらく	-8.34914
笑	-8.34922
どうも	-8.35206
まい	-8.35276
身	-8.35878
もし	-8.36289
やる	-8.3653
東京	-8.36546
そりゃ	-8.36603
される	-8.36686
事に	-8.36738
理	-8.368
紙	-8.36952
文	-8.37016
折	-8.37094
そこに	-8.37214
ずに	-8.37255
朝	-8.37334
もなく	-8.3742
とうとう	-8.37534
頃	-8.37593
▁その時	-8.3763
今日	-8.3787
白い	-8.38169
国	-8.38266
そうだ	-8.38292
人に	-8.3862
学	-8.38638
兄	-8.38813
ものだ	-8.38945
同	-8.39155
車	-8.39163
事がある	-8.39471
馬鹿	-8.39485
病気	-8.39527
かけた	-8.39651
ッ	-8.39657
悪い	-8.40009
流	-8.40145
愛	-8.40469
見て	-8.40509
じゃありませんか	-8.40631
世間	-8.40646
▁僕は	-8.40672
黒い	-8.40685
大変	-8.40705
出て	-8.40709
知らない	-8.4085
ちゃ	-8.40902
と思って	-8.40954
聞き	-8.40964
又	-8.41119
海	-8.41121
いう	-8.41409
例	-8.41463
百	-8.41469
いました	-8.41563
数	-8.41669
感	-8.41984
える	-8.42078
誰	-8.42271
学校	-8.42344
と思った	-8.4239
に対する	-8.42869
鼻	-8.4295
れて	-8.43049
ていた	-8.43337
彼女の	-8.43497
意	-8.43515
くなった	-8.43529
回	-8.43581
かと	-8.43586
妙な	-8.43642
込んだ	-8.43662
まず	-8.43668
頭を	-8.4369
火	-8.43817
それは	-8.43994
妻	-8.44075
死	-8.44078
をもって	-8.44203
持って	-8.44518
自分が	-8.4459
床	-8.44676
び	-8.448
何だか	-8.44926
光	-8.45122
利	-8.45258
疑	-8.45427
さんは	-8.45531
想像	-8.45606
長い	-8.45713
草	-8.46101
されて	-8.46193
これは	-8.46258
だの	-8.46337
つく	-8.46396
話を	-8.4648
それから	-8.46485
でした	-8.46498
雨	-8.46561
ねえ	-8.46607
います	-8.46685
だか	-8.46729
を見た	-8.46791
土	-8.468
動	-8.46887
のごとく	-8.47087
んですか	-8.47248
持	-8.4726
そうな	-8.47495
放	-8.47542
六	-8.47584
られ	-8.47614
苦	-8.47704
居	-8.47797
話し	-8.47862
廻	-8.47979
の間に	-8.48276
出た	-8.48367
別	-8.48381
夫婦	-8.4845
事も	-8.48504
があって	-8.48747
立つ	-8.48996
その時	-8.49022
家の	-8.49082
時は	-8.49103
なお	-8.49204
向う	-8.49388
べき	-8.49465
湯	-8.49502
しまった	-8.49582
ああ	-8.49808
っと	-8.49863
らしく	-8.50219
様子	-8.50221
付	-8.50243
やっぱり	-8.50299
見えた	-8.50323
帰る	-8.50339
▁ところが	-8.50357
思う	-8.50373
念	-8.504
▁津田は	-8.50462
人を	-8.50544
言葉を	-8.50626
置いて	-8.50764
ぐらい	-8.50845
ぼ	-8.50894
心配	-8.50954
彼女は	-8.5107
聞いて	-8.51134
一種の	-8.51396
立ち	-8.51636
覚	-8.51641
わが	-8.51747
宿	-8.52024
仕	-8.52052
掛	-8.52233
なかなか	-8.52462
実際	-8.52496
晩	-8.52619
馬	-8.52732
関係	-8.52863
新	-8.52869
成	-8.53006
自分を	-8.53019
はず	-8.53048
行き	-8.53053
情	-8.53277
間に	-8.53286
時間	-8.53302
だけで	-8.53506
神	-8.53597
主人	-8.53947
のだから	-8.53948
今まで	-8.53963
子供	-8.54005
例の	-8.54134
知	-8.54239
嫂	-8.54275
猫	-8.54388
やって	-8.5443
なるほど	-8.5445
ごとく	-8.54477
どうしても	-8.54515
やはり	-8.54697
なければならない	-8.54704
られて	-8.54811
ならば	-8.54944
室	-8.54961
縁	-8.54987
声	-8.55103
叔父	-8.55155
位	-8.55176
残	-8.55268
高い	-8.55425
所へ	-8.55449
曲	-8.55566
▁彼女は	-8.55583
今の	-8.55642
腹	-8.5573
わざと	-8.558
的に	-8.5582
云って	-8.56015
困る	-8.5603
社会	-8.56087
黙って	-8.56296
▁余は	-8.56592
安	-8.56603
多	-8.56635
思	-8.56644
様に	-8.56725
薄	-8.56761
感じ	-8.56823
昔	-8.56991
日本	-8.57152
かえって	-8.57213
上に	-8.57259
丸	-8.57447
だいぶ	-8.57794
胸	-8.5782
K	-8.57942
出来	-8.57978
こっち	-8.58217
イ	-8.58344
等	-8.58484
茶	-8.58602
転	-8.58645
わざわざ	-8.58649
の前に	-8.5865
浮	-8.58699
二人の	-8.58865
なんか	-8.58905
のみ	-8.58947
▁それが	-8.58974
使	-8.59142
ものか	-8.59154
七	-8.59172
のうちに	-8.59276
何にも	-8.59291
だけは	-8.59396
幾	-8.59523
津田	-8.59663
えた	-8.59862
裏	-8.59889
げ	-8.59959
のであります	-8.60079
生活	-8.60228
つけ	-8.60252
にある	-8.60314
厭	-8.60546
尽	-8.60867
遣	-8.60949
を見て	-8.61021
聞く	-8.61039
ものである	-8.6108
▁これは	-8.61108
宅	-8.61241
法	-8.61434
骨	-8.61594
お延	-8.61873
どこ	-8.61919
ける	-8.61922
きっと	-8.61936
余の	-8.62375
もっとも	-8.62552
化	-8.62576
見える	-8.62583
だった	-8.6261
部屋	-8.62681
どうして	-8.62722
私が	-8.62763
考えて	-8.62834
しかし	-8.63085
門	-8.63124
病	-8.63159
づ	-8.632
かく	-8.63347
端	-8.63353
程	-8.63379
どうか	-8.63386
ここ	-8.63451
面白い	-8.63595
もので	-8.63778
せる	-8.63928
庭	-8.63964
手に	-8.63967
口を	-8.63974
肉	-8.64007
傍	-8.64011
これを	-8.64268
つか	-8.6429
勢	-8.64337
近	-8.64464
帰って	-8.64477
何でも	-8.64549
だが	-8.64751
違	-8.6479
目に	-8.65094
兄さん	-8.65098
記憶	-8.65248
くれ	-8.65409
異	-8.65556
眼に	-8.65657
▁宗助は	-8.65711
結婚	-8.65871
んだろう	-8.66003
?」	-8.66033
結果	-8.66069
品	-8.66157
飛び	-8.66386
いなかった	-8.6641
落ち	-8.66465
すでに	-8.66524
小説	-8.66605
こそ	-8.6668
けた	-8.66718
かない	-8.66763
だよ	-8.66771
実は	-8.6701
だね	-8.67014
と答えた	-8.67111
める	-8.67487
左	-8.67536
いている	-8.67553
吾	-8.67717
むしろ	-8.67791
と共に	-8.67996
観	-8.68009
移	-8.6801
経験	-8.6808
しながら	-8.68215
世の中	-8.68244
自分に	-8.68356
かけて	-8.6845
んと	-8.68464
三四郎	-8.68509
帰った	-8.68758
上の	-8.68987
田	-8.69163
帰	-8.69176
?	-8.69194
野	-8.69261
細君	-8.69305
目的	-8.69361
玄関	-8.69363
丈	-8.69638
こういう	-8.6965
血	-8.69686
ア	-8.69686
しました	-8.69839
と聞いた	-8.69862
しきりに	-8.7002
暮	-8.70031
変化	-8.70114
に向って	-8.70605
論	-8.70861
心持	-8.70912
いで	-8.70914
迄	-8.70968
姉	-8.7099
影	-8.71046
奴	-8.71173
くれた	-8.71305
妹	-8.71311
詩	-8.7144
冷	-8.71461
受け	-8.71484
しても	-8.71514
根	-8.71521
余は	-8.71553
台	-8.71565
▁もし	-8.71582
おい	-8.71649
けて	-8.71736
暗い	-8.71899
絵	-8.71981
露	-8.71982
文学	-8.72033
やら	-8.72121
態度	-8.7219
さあ	-8.72227
切り	-8.72246
リ	-8.72261
主	-8.72444
葉	-8.72604
世界	-8.72609
の上へ	-8.72671
下女	-8.72709
女は	-8.72863
自然	-8.7292
半分	-8.73068
発	-8.73148
今日は	-8.73194
額	-8.73317
立て	-8.73395
行か	-8.73402
であつた	-8.73483
ましょう	-8.73491
われ	-8.73617
仕方がない	-8.73737
説明	-8.73928
問	-8.74023
もう少し	-8.7411
今度は	-8.74217
座敷	-8.74218
奥	-8.74245
音	-8.74334
すれば	-8.74373
現	-8.74436
波	-8.7467
ずる	-8.74685
込む	-8.74711
答え	-8.74772
ほとんど	-8.74804
これから	-8.74807
赤	-8.74871
反	-8.74934
お秀	-8.74944
動か	-8.74984
帯	-8.75012
しか	-8.75058
自分で	-8.75121
所に	-8.75124
打ち	-8.75196
可	-8.75275
▁また	-8.75481
兄の	-8.75614
書いて	-8.75661
自	-8.75698
非常に	-8.75701
極	-8.75859
松	-8.75993
ところを	-8.76377
何の	-8.76387
恋	-8.76388
上げた	-8.76499
ようだ	-8.7659
は無論	-8.76746
往来	-8.7675
ざ	-8.76978
場合	-8.77061
考えた	-8.77098
事件	-8.7713
筆	-8.77433
昨日	-8.77448
何を	-8.77504
句	-8.77555
べ	-8.77573
なに	-8.7774
美	-8.77762
代助	-8.77796
になると	-8.77945
手紙	-8.78043
壁	-8.78137
交	-8.78469
チ	-8.7849
の下に	-8.78573
身体	-8.78584
声が	-8.7866
首を	-8.78678
とき	-8.78694
だんだん	-8.78846
失	-8.78926
かかる	-8.78938
限	-8.78972
なくなった	-8.79315
二つ	-8.7932
小六	-8.79363
でない	-8.79417
別に	-8.79483
買	-8.79491
ついに	-8.79541
雲	-8.79558
戸	-8.79592
ものと	-8.79818
んでしょう	-8.79879
急	-8.79886
座	-8.79897
もある	-8.79913
退	-8.79985
風に	-8.80064
背	-8.80232
嫌	-8.80267
理想	-8.80287
説	-8.8055
籠	-8.80637
死ぬ	-8.80708
の事を	-8.80788
辺	-8.80794
畳	-8.80839
時分	-8.80877
懸	-8.80924
の中へ	-8.80979
いっしょに	-8.80996
過	-8.81112
の間	-8.81155
やった	-8.812
を持って	-8.81205
始めた	-8.8121
九	-8.81211
ならない	-8.81269
隠	-8.81288
あなたの	-8.81299
はなはだ	-8.81366
分らない	-8.81413
あなたは	-8.81593
気分	-8.81701
銭	-8.81728
において	-8.8174
己	-8.82024
定	-8.82029
)	-8.82095
精神	-8.82109
遠	-8.82117
ここに	-8.82226
他の	-8.82287
原	-8.82454
の方が	-8.82467
達	-8.82721
やり	-8.82818
解釈	-8.82834
答えた	-8.82898
活	-8.82947
刻	-8.82983
▁それ	-8.83054
つけて	-8.83087
ぞ	-8.83169
電車	-8.83189
立った	-8.83212
つけた	-8.83306
怒	-8.83342
筋	-8.83355
ほどの	-8.83421
普通の	-8.835
結	-8.83508
汽車	-8.83536
したら	-8.8355
毛	-8.83564
川	-8.83567
娘	-8.8357
持ち	-8.83587
します	-8.83833
ありません	-8.83872
りました	-8.83881
名前	-8.83891
伝	-8.84003
春	-8.84094
窓	-8.84154
うと	-8.84168
人間の	-8.84217
いろいろ	-8.84227
小林	-8.84232
カ	-8.84319
なさい	-8.84373
▁今	-8.84476
気を	-8.84543
路	-8.84562
いけない	-8.84688
ほ	-8.84693
置	-8.84874
清	-8.84896
上げて	-8.84927
などは	-8.84945
色の	-8.84968
円	-8.85011
経	-8.85032
それほど	-8.85035
千	-8.85057
答	-8.8508
父の	-8.85128
待	-8.85187
しよう	-8.85264
他	-8.85289
坐	-8.85382
気の毒	-8.85456
らなかった	-8.85468
せた	-8.85526
あんな	-8.85547
士	-8.85619
の中で	-8.85742
おれ	-8.8575
下さい	-8.85843
巻	-8.85861
物を	-8.8588
くなる	-8.85969
痛	-8.8612
若い	-8.86121
e	-8.86201
眠	-8.86215
はこの	-8.86234
強い	-8.86356
番	-8.86363
▁それを	-8.86379
故	-8.86381
思った	-8.8639
なんて	-8.86434
嘘	-8.86598
意識	-8.86603
▁もっとも	-8.86604
押し	-8.86631
足を	-8.86676
僕が	-8.86739
あれ	-8.86819
過ぎる	-8.86841
殺	-8.86965
ことごとく	-8.87019
三千代	-8.87064
逆	-8.87204
広い	-8.87224
突	-8.87281
うち	-8.87287
でき	-8.87426
笑った	-8.87458
下宿	-8.87615
寄	-8.87662
▁彼の	-8.88094
れない	-8.88138
ク	-8.88145
さま	-8.88153
なもの	-8.8826
性質	-8.88334
それじゃ	-8.88346
後で	-8.88441
新聞	-8.88554
待ち	-8.88589
書き	-8.88736
さう	-8.8883
お前	-8.88834
細	-8.88882
津田の	-8.88992
▁二人は	-8.89084
振り	-8.89303
割	-8.89315
多少	-8.89339
ラ	-8.89426
され	-8.89526
御前	-8.89702
らぬ	-8.89706
穴	-8.89718
評	-8.89755
心を	-8.89807
要	-8.90064
シ	-8.90105
ところが	-8.90294
善	-8.90352
わない	-8.90446
注意	-8.90497
終	-8.90505
ちょうど	-8.90513
ですよ	-8.90565
そういう	-8.90597
声を	-8.90628
勝	-8.90648
角	-8.90905
以上	-8.91
許	-8.91084
▁それは	-8.91203
美禰子	-8.91217
へ行って	-8.91301
満足	-8.91405
一度	-8.91679
青	-8.91768
さんが	-8.91882
一番	-8.92036
都合	-8.92062
なければならなかった	-8.92743
何も	-8.9278
返事	-8.92826
らん	-8.929
寺	-8.92927
いよいよ	-8.92936
研究	-8.92937
ついた	-8.93027
第一	-8.93108
為	-8.9324
公	-8.93269
髪	-8.93328
教育	-8.93351
長く	-8.93363
寒	-8.93383
学者	-8.93416
ではなかった	-8.93452
わる	-8.93622
▁そこで	-8.93653
この間	-8.93664
頬	-8.93707
少々	-8.93808
細君の	-8.93816
船	-8.93841
常	-8.93868
しまう	-8.93958
得る	-8.93974
思わ	-8.93991
、――	-8.94074
前の	-8.94087
歩	-8.94096
のだ	-8.9414
余裕	-8.94173
約束	-8.94176
るように	-8.94277
先生の	-8.94393
手紙を	-8.94426
らず	-8.9456
時代	-8.94584
男が	-8.94671
二三	-8.94686
つもり	-8.94819
ですね	-8.95064
後から	-8.95102
すべて	-8.95192
るのは	-8.95217
のかい	-8.95312
息	-8.95312
鳴	-8.95321
赤い	-8.95342
私に	-8.95416
飯	-8.95454
女が	-8.9552
健三	-8.95533
先刻	-8.95681
頭に	-8.95682
あら	-8.95731
節	-8.95841
に違ない	-8.9587
かけ	-8.9587
そんなに	-8.96161
▁女は	-8.96217
あたし	-8.96269
自身	-8.96287
どうした	-8.96291
たびに	-8.9635
迷亭	-8.96433
時計	-8.96664
もっと	-8.9667
と云ふ	-8.96689
たま	-8.96807
突き	-8.96949
そこ	-8.97051
▁お延は	-8.97098
相談	-8.97136
機会	-8.97143
でもない	-8.97261
調子	-8.97268
先に	-8.97327
千代子	-8.97355
衣	-8.97511
平岡	-8.97516
是非	-8.97538
▁健三は	-8.97772
なくって	-8.97781
この時	-8.97871
二十	-8.9788
机	-8.97893
果	-8.97951
張	-8.98002
余り	-8.98007
津田は	-8.98266
抱	-8.98319
三沢	-8.98381
愚	-8.984
小供	-8.98421
と見えて	-8.98443
いつでも	-8.98456
ト	-8.9846
起る	-8.98627
一本	-8.98656
単に	-8.98661
聞	-8.98686
鏡	-8.98797
破	-8.98826
ド	-8.98833
再び	-8.98838
医者	-8.98885
続	-8.98932
吹き	-8.98997
少	-8.99133
戻	-8.99268
教師	-8.99277
煙	-8.99333
談	-8.99442
がいい	-8.9946
気の	-8.99524
末	-8.99697
腰を	-8.99709
運命	-8.99723
何とも	-8.99734
まる	-8.9999
具	-9.00019
自由	-9.0005
大分	-9.00099
損	-9.00132
候	-9.00139
まった	-9.00416
障子	-9.00468
先生は	-9.00472
付け	-9.00516
けっして	-9.00545
枕	-9.00584
越	-9.00631
部	-9.00854
何時	-9.00854
恐れ	-9.00927
難	-9.01012
状	-9.01022
ところで	-9.01026
敷	-9.01061
読み	-9.01091
込	-9.01157
▁やがて	-9.01194
ってる	-9.01262
以上は	-9.01449
袖	-9.01471
面倒	-9.0148
打	-9.01493
彼女	-9.01572
一人で	-9.01669
世話	-9.01761
差	-9.01836
なくっちゃ	-9.0187
遠慮	-9.01874
養	-9.01914
竹	-9.01915
敵	-9.01917
焼	-9.01917
といって	-9.0199
ぎり	-9.02063
先へ	-9.02173
入った	-9.02192
あるいは	-9.02227
側	-9.02326
灯	-9.02329
さんの	-9.02371
とにかく	-9.02396
の中	-9.02543
人と	-9.02695
暗	-9.02746
売	-9.03003
広	-9.03007
彼を	-9.03016
婆さん	-9.03024
種	-9.03043
様な	-9.0315
苦し	-9.03194
なし	-9.03307
三人	-9.0333
歩いて	-9.0342
おや	-9.03498
ですから	-9.03507
きた	-9.03511
限り	-9.03601
師	-9.03713
主義	-9.0372
洗	-9.03721
みた	-9.03738
調	-9.0375
つもりで	-9.03784
あと	-9.03833
......	-9.03892
はまだ	-9.03985
だろうと	-9.04006
書いた	-9.04037
ついて	-9.04114
与え	-9.04121
段	-9.04197
知らぬ	-9.04222
のため	-9.04235
▁そう	-9.04269
消	-9.04278
のだろう	-9.04287
取って	-9.04329
起った	-9.04351
糸	-9.04377
至	-9.04398
お延の	-9.04489
動く	-9.04553
里	-9.04637
雑	-9.04637
信	-9.04702
弱	-9.04778
彼らの	-9.04941
程度	-9.05138
を出して	-9.05161
弁	-9.05183
男は	-9.05372
似	-9.05397
せっかく	-9.05562
小さい	-9.05564
苦痛	-9.05588
そうか	-9.05614
▁同時に	-9.05628
できる	-9.05652
▁それでも	-9.05707
苦しい	-9.05965
是	-9.06001
興味	-9.06044
られない	-9.06189
はまた	-9.06201
寸	-9.06293
懐	-9.06406
島田	-9.06505
か分らない	-9.06629
たり	-9.06795
界	-9.06938
集	-9.06964
いらっしゃる	-9.0708
私には	-9.07082
▁その上	-9.07087
の一	-9.0713
くれる	-9.07291
開	-9.073
と云い	-9.07323
板	-9.07436
を取り	-9.0774
然として	-9.07832
静	-9.07879
図	-9.07907
・	-9.0791
反対	-9.07924
五六	-9.0794
皆	-9.07943
役	-9.0796
仰	-9.07967
構	-9.07994
なん	-9.08001
居る	-9.08066
無論	-9.08094
せて	-9.08178
は何	-9.08262
なって	-9.08266
判然	-9.08286
へ出て	-9.08321
上げ	-9.08366
できない	-9.08426
万	-9.08471
申し	-9.08505
ものだから	-9.0859
喜	-9.08654
飯を	-9.08796
甲	-9.08847
職業	-9.08871
文芸	-9.08974
底	-9.09191
大学	-9.09213
出来ない	-9.09227
見当	-9.09281
腰	-9.09321
精	-9.09326
代助は	-9.09347
▁しかも	-9.09393
返事を	-9.09487
宗助	-9.09752
考	-9.09775
閑	-9.09816
ハハハハ	-9.0983
親切	-9.09904
西洋	-9.10059
の所へ	-9.10171
っちゃ	-9.10265
つき	-9.10278
あんまり	-9.10314
投げ	-9.10461
追	-9.10535
彼ら	-9.10557
そうして	-9.10567
過ぎた	-9.10575
▁其	-9.1062
しき	-9.10626
熱	-9.10643
寒い	-9.10707
どっち	-9.10848
代りに	-9.1088
は全く	-9.10908
忘れ	-9.11042
腕	-9.11292
迷惑	-9.11295
勇気	-9.11429
時には	-9.11487
させる	-9.11596
袋	-9.11743
素	-9.11784
眉	-9.11784
欠	-9.11784
誰も	-9.11839
の音	-9.12115
店	-9.12279
模様	-9.12297
案内	-9.1232
金を	-9.12344
はもう	-9.12347
主人の	-9.12404
毎日	-9.12424
振	-9.12428
不安	-9.12435
所で	-9.12456
つける	-9.12637
罪	-9.12775
陰	-9.12777
気がついた	-9.12828
進	-9.12939
もなかった	-9.1301
仕事	-9.13012
話した	-9.13152
であろう	-9.13152
自覚	-9.13306
留	-9.13312
▁私の	-9.13473
肩	-9.13566
帰り	-9.13581
二階	-9.13725
質	-9.13738
計	-9.13748
状態	-9.13783
まして	-9.13826
そうです	-9.13905
置いた	-9.14009
天下	-9.14088
になります	-9.14134
やがて	-9.14157
方面	-9.14168
よほど	-9.14226
死んだ	-9.14324
かける	-9.14351
たくさん	-9.14419
の方に	-9.14425
出来る	-9.14444
ゐる	-9.14513
深い	-9.14532
しなかった	-9.14683
切って	-9.14685
ゐた	-9.14724
かかった	-9.14758
鉄	-9.14778
坂	-9.1478
フ	-9.14791
輪	-9.14792
暇	-9.14792
▁したがって	-9.14796
上げる	-9.14867
といった	-9.14883
立っている	-9.14911
進んで	-9.15057
とすれば	-9.15075
強	-9.15152
と思います	-9.15176
所を	-9.1526
あります	-9.15278
叔母	-9.15296
の下	-9.15395
君が	-9.15418
望	-9.15727
▁さうして	-9.15828
顔をして	-9.15888
の方で	-9.16063
すべき	-9.16098
夏	-9.1633
o	-9.16331
すこぶる	-9.16331
博士	-9.16334
少しも	-9.16352
響	-9.16371
をしている	-9.16491
能	-9.16516
するのは	-9.16525
ふと	-9.16552
吾輩	-9.1668
酒	-9.16698
細い	-9.16699
あって	-9.16709
井	-9.16779
右	-9.1678
与次郎	-9.16783
鳥	-9.16825
迷	-9.16844
歯	-9.16849
始終	-9.16855
運動	-9.16871
なるべく	-9.16901
くなって	-9.1694
▁一	-9.17023
なき	-9.17085
神経	-9.17126
困	-9.17145
考える	-9.17194
見せた	-9.17293
ぽ	-9.17328
当人	-9.17362
谷	-9.1737
食う	-9.17411
同情	-9.1742
にする	-9.17435
一枚	-9.17451
積	-9.17456
得意	-9.17494
出て来た	-9.17515
隣	-9.17525
借り	-9.17527
置く	-9.17706
▁先生は	-9.17714
a	-9.17888
お嬢さん	-9.17893
すなわち	-9.17894
予期	-9.17898
なくては	-9.17925
いいえ	-9.17965
上って	-9.18098
合せ	-9.18143
和	-9.18403
秋	-9.18405
長蔵さん	-9.1842
それに	-9.1843
的な	-9.18477
へ出た	-9.18543
空気	-9.18557
といふ	-9.18579
業	-9.18586
掛けた	-9.18613
然	-9.18823
いだ	-9.18847
橋	-9.18876
出し	-9.18879
んだよ	-9.18935
器	-9.18944
ほかに	-9.18973
がまた	-9.19075
その後	-9.19102
田口	-9.19124
なので	-9.1914
まって	-9.19141
逢	-9.19218
実に	-9.19328
耳に	-9.19375
と同じ	-9.19387
愉快	-9.19412
耳	-9.19423
いえ	-9.19437
式	-9.19453
丁	-9.19455
椅子	-9.19481
周囲	-9.19481
▁主人は	-9.19495
一言	-9.19524
抜	-9.19544
▁あの	-9.19598
これが	-9.19609
教	-9.19691
笑い	-9.19715
払	-9.19821
だけに	-9.19878
十五	-9.19905
薬	-9.20015
とうてい	-9.20017
学問	-9.20052
って来た	-9.20053
昔し	-9.20149
これで	-9.20174
過去	-9.20312
待って	-9.2034
御米	-9.20395
ざる	-9.20458
釣	-9.2051
s	-9.20553
友達	-9.20563
全体	-9.20582
並	-9.20608
藤尾	-9.20656
一日	-9.20722
存在	-9.20749
処	-9.20914
対	-9.20926
連れて	-9.20936
思って	-9.20999
照	-9.21012
ないと	-9.21036
類	-9.21051
よりほかに	-9.21062
作物	-9.21132
本当に	-9.21172
かり	-9.21475
及	-9.21612
威	-9.21637
箱	-9.21637
生徒	-9.21724
青年	-9.21737
書物	-9.21738
今度	-9.21785
なくなる	-9.21835
這入って	-9.2184
入れ	-9.21855
絶	-9.21859
若	-9.2188
容易に	-9.21916
▁こんな	-9.21946
記	-9.21988
立てて	-9.22064
▁三	-9.22109
あの女	-9.22154
ちっとも	-9.22178
約	-9.22179
批評	-9.22182
日に	-9.22194
掛けて	-9.22268
老	-9.22281
話して	-9.22309
という事	-9.22322
高く	-9.22534
途	-9.22565
さない	-9.22575
落ちた	-9.22632
下から	-9.22707
廊下	-9.22733
道徳	-9.22755
からである	-9.22763
へ行く	-9.22841
感じた	-9.22878
んでいる	-9.22936
ずつ	-9.23094
認め	-9.23224
在	-9.23257
のよ	-9.23271
幅	-9.23285
責任	-9.23289
判	-9.23296
着いた	-9.23298
比較的	-9.2334
遠く	-9.23341
止	-9.23505
はあ	-9.23714
良	-9.23841
喧嘩	-9.23841
母の	-9.2385
知ってる	-9.23862
坑夫	-9.23868
々と	-9.23869
或	-9.23925
る事	-9.24013
よりは	-9.24074
乗	-9.24086
なかろう	-9.24113
黙	-9.24218
生きて	-9.24228
義	-9.24231
知らず	-9.24232
然と	-9.24249
休	-9.24323
▁いくら	-9.24325
何う	-9.24344
短	-9.24367
揺	-9.24378
願	-9.24378
京都	-9.24402
未来	-9.24472
がなかった	-9.2451
着物	-9.24515
近頃	-9.24527
あたり	-9.24541
日の	-9.24596
▁細君は	-9.24792
射	-9.24945
t	-9.24954
河	-9.24961
さっき	-9.24962
離	-9.2507
三十	-9.25109
やめ	-9.25137
家へ	-9.25172
者は	-9.25317
老人	-9.25424
▁二	-9.25434
もまた	-9.25452
早	-9.25517
たちまち	-9.25526
柱	-9.25527
須永	-9.25527
によると	-9.25567
入口	-9.25752
ります	-9.25783
這入	-9.25803
の上	-9.25828
▁そうしてその	-9.25856
んだが	-9.25945
寒月君	-9.26009
飛	-9.26012
しろ	-9.26073
油	-9.26093
ロ	-9.26094
不愉快	-9.26168
初さん	-9.26197
らした	-9.26273
なさ	-9.26393
更	-9.26492
深	-9.26497
始め	-9.26618
つかない	-9.26647
辞	-9.26651
充分	-9.26665
包	-9.26684
趣味	-9.2669
活動	-9.26727
どうせ	-9.26804
無理	-9.26806
が悪い	-9.26811
▁小野さんは	-9.26823
心の	-9.26928
ですが	-9.26982
自分と	-9.27005
僕も	-9.27165
矛盾	-9.2724
犬	-9.2724
間違	-9.27257
食い	-9.27266
落ちて	-9.27317
いった	-9.27451
首	-9.27502
他人	-9.27623
来ない	-9.27682
いつも	-9.27776
院	-9.278
むやみに	-9.27818
随分	-9.27838
癖	-9.27894
返した	-9.27902
登	-9.27951
▁その代り	-9.28025
自己	-9.28078
ゝ	-9.28179
ものであった	-9.28232
見ている	-9.28402
音が	-9.28464
確	-9.28488
を見ると	-9.28539
時の	-9.28559
っても	-9.28625
機	-9.28675
運	-9.28795
関	-9.28815
つまり	-9.28896
岡田	-9.28922
などと	-9.28944
大抵	-9.28985
立派な	-9.28985
驚ろいた	-9.28985
俗	-9.28985
ねばならぬ	-9.28988
新らしい	-9.29069
不思議	-9.29072
それだけ	-9.29173
切れ	-9.29188
考へ	-9.29297
君に	-9.29301
返して	-9.29313
髯	-9.29569
歌	-9.29572
列	-9.29573
赤シャツ	-9.29576
なった	-9.29587
病院	-9.29591
顔を見	-9.29617
ものに	-9.29695
昔の	-9.29749
だけの	-9.29761
ならん	-9.29783
悪く	-9.29785
にゃ	-9.29846
お延は	-9.29934
玉	-9.29942
や否や	-9.29946
家に	-9.29976
▁こう	-9.30027
写	-9.30064
敬太郎	-9.30114
棒	-9.30159
必ず	-9.30166
らしかった	-9.30201
一度に	-9.3027
言い	-9.30335
どうだ	-9.30345
口に	-9.30384
単	-9.30396
の色	-9.30665
注	-9.30715
はまるで	-9.3075
襟	-9.3076
北	-9.3076
発展	-9.30765
るもの	-9.30767
極めて	-9.31111
にいる	-9.31121
いかに	-9.31188
主人は	-9.31345
看護婦	-9.31359
連	-9.3142
済ま	-9.31588
の御	-9.31618
やろう	-9.31686
全	-9.31902
▁兄は	-9.31914
香	-9.31953
劇	-9.31956
ようで	-9.31958
胃	-9.31961
たしか	-9.31976
明日	-9.32001
承知	-9.3209
たら	-9.32218
るべき	-9.3229
すら	-9.3229
卒業	-9.32435
夫の	-9.32448
配	-9.32525
支	-9.32526
細君は	-9.32623
大いに	-9.3264
われる	-9.32676
どこへ	-9.32784
いらっしゃい	-9.3281
(	-9.32893
によって	-9.32915
彼に	-9.32924
の影	-9.32932
心持ち	-9.33005
膝	-9.33009
とした	-9.33065
従	-9.33132
昼	-9.33146
西	-9.33169
こちら	-9.33178
呼び	-9.33397
にならない	-9.3341
けば	-9.33479
自己の	-9.33541
満	-9.3364
東	-9.33671
合う	-9.3368
十二	-9.33755
子の	-9.3378
境	-9.33784
村	-9.3379
見ても	-9.33794
行こう	-9.33799
の上で	-9.33805
下へ	-9.33836
家を	-9.33846
真面目	-9.3386
驚いた	-9.33869
席	-9.34005
せぬ	-9.34039
纏	-9.34083
知れ	-9.34088
今日まで	-9.341
静かな	-9.34272
存	-9.34293
健三の	-9.34304
貴方	-9.34316
後に	-9.34398
靴	-9.34408
御母さん	-9.34412
からね	-9.34434
ちゃんと	-9.34458
入れた	-9.34474
のうちで	-9.34493
差し	-9.34508
▁敬太郎は	-9.34528
みると	-9.34636
服	-9.34795
笑う	-9.34887
がね	-9.34944
平生	-9.3505
なんだ	-9.3508
かも知れません	-9.35141
電話	-9.35201
だけが	-9.35235
諸君	-9.35303
のまま	-9.35345
いると	-9.35361
貰う	-9.35362
聞くと	-9.35383
礼	-9.35408
じた	-9.35409
かかって	-9.35468
の底	-9.35473
どうです	-9.35482
牛	-9.3565
コ	-9.35653
ぼんやり	-9.35654
ジ	-9.35654
宅へ	-9.35657
義務	-9.35659
行かない	-9.35714
馳け	-9.35797
心に	-9.35809
えば	-9.35809
ここで	-9.3582
身を	-9.35849
書生	-9.35873
共	-9.35962
といっしょに	-9.35966
だらう	-9.35992
軒	-9.36079
してしまった	-9.36135
▁君	-9.36272
南	-9.36279
勉強	-9.36283
涙	-9.36283
理由	-9.36292
散歩	-9.36295
火鉢	-9.36299
を見る	-9.36373
解らない	-9.36406
にした	-9.36465
じて	-9.36529
▁そのうち	-9.36551
蒼	-9.36636
宗助は	-9.36642
あるまい	-9.36651
快	-9.36773
賞	-9.36916
唐	-9.36916
滑	-9.36916
観察	-9.36922
彼等	-9.36968
聴	-9.36973
▁ことに	-9.37043
流れ	-9.37052
東京へ	-9.3706
乗り	-9.37124
考えると	-9.37142
いかにも	-9.37154
取った	-9.3719
さも	-9.37293
日本の	-9.37351
合わ	-9.37353
詰	-9.37387
狂	-9.37467
紅	-9.37553
山嵐	-9.3756
変な	-9.37565
▁母は	-9.37573
とかいう	-9.37708
構わない	-9.378
ここへ	-9.3781
おう	-9.37902
握	-9.37969
柄	-9.38003
趣	-9.38112
線	-9.38154
事情	-9.38174
布	-9.38175
幸福	-9.38195
のうち	-9.38206
小野さん	-9.3823
はただ	-9.3826
の名	-9.38374
と云いながら	-9.38417
代助の	-9.38573
▁それに	-9.38639
くって	-9.38652
ようと	-9.38768
したり	-9.38811
堂	-9.38815
りに	-9.38817
垣	-9.38822
キ	-9.38825
附	-9.38838
透	-9.3884
名を	-9.38943
事がない	-9.38964
内に	-9.38979
だろうか	-9.39012
吹	-9.3905
云ふ	-9.39073
初	-9.39093
傍に	-9.39214
下に	-9.39224
見え	-9.39396
何とか	-9.3943
騒	-9.39459
へえ	-9.3946
おります	-9.39648
方の	-9.39744
彼が	-9.39837
頭の	-9.39881
らし	-9.39889
ても	-9.39899
▁父は	-9.39923
被	-9.39924
行くと	-9.39954
お重	-9.40033
胸に	-9.40045
そのまま	-9.40079
を聞いて	-9.40113
造	-9.40138
浅	-9.40142
膳	-9.40142
昨夕	-9.40143
偶然	-9.40146
田舎	-9.40148
留守	-9.40151
散	-9.40215
古い	-9.40221
に見える	-9.40277
と云うのは	-9.40298
何しろ	-9.40351
様子を	-9.40416
前後	-9.40457
しゃ	-9.40485
独	-9.40514
起き	-9.40635
黄	-9.40733
的の	-9.40798
のだと	-9.40833
姿	-9.40903
買って	-9.40936
安心	-9.41082
読んで	-9.41133
おれの	-9.41156
まえ	-9.41315
ぴ	-9.41462
舌	-9.41462
芝居	-9.41468
羽織	-9.41468
怖	-9.4153
腹の中で	-9.41584
よし	-9.41645
決して	-9.41673
または	-9.41686
のなかに	-9.41702
独り	-9.41717
書斎	-9.41759
ゆ	-9.4176
私も	-9.41773
ったり	-9.41935
の関係	-9.42002
駄目だ	-9.42006
自然の	-9.42055
先方	-9.42121
保	-9.42122
奇	-9.42127
よっぽど	-9.42129
だけであった	-9.42149
の方から	-9.4215
点において	-9.42242
ないので	-9.4236
見えない	-9.42388
外に	-9.424
云	-9.42411
逃げ	-9.42436
世の中に	-9.4252
方を	-9.42569
最も	-9.42576
云うと	-9.42577
しまい	-9.42662
社	-9.42703
れている	-9.42756
かつ	-9.42778
枝	-9.42799
希望	-9.42799
戦争	-9.42804
背中	-9.42851
申	-9.42861
大丈夫	-9.42903
参	-9.42988
云え	-9.43134
午	-9.43225
姿を	-9.43291
強く	-9.43294
しかも	-9.43381
尾	-9.4345
テ	-9.43475
いわゆる	-9.43481
これも	-9.43501
云えば	-9.43565
甲野さん	-9.43569
した時	-9.43632
狭い	-9.43661
にとって	-9.4368
などを	-9.43738
得た	-9.43825
くて	-9.4392
当時	-9.43936
のだが	-9.44083
軽蔑	-9.44128
皮	-9.44137
閉	-9.44155
坊主	-9.44168
景色	-9.44212
方角	-9.44325
する事	-9.44326
ことに	-9.44328
開け	-9.44331
の如く	-9.44355
だと云う	-9.44424
同様	-9.44454
生れた	-9.44591
乱	-9.44641
われた	-9.44667
かと思うと	-9.44685
して見ると	-9.44691
張り	-9.44705
げて	-9.44783
を引き	-9.4481
職	-9.4483
戦	-9.4483
号	-9.44837
いつの間にか	-9.44841
銀	-9.44841
議論	-9.4485
なくっても	-9.44907
具合	-9.44908
はなかった	-9.4491
の結果	-9.4493
事はない	-9.44932
もしくは	-9.44934
ないから	-9.44985
せん	-9.45029
いても	-9.4504
縁側	-9.45048
方に	-9.45109
一寸	-9.45137
返す	-9.45156
顔は	-9.45205
遊	-9.45207
通る	-9.45228
私を	-9.45355
込め	-9.45487
▁何	-9.45503
視	-9.45522
費	-9.45522
著	-9.4553
倍	-9.4553
墓	-9.45531
の中を	-9.45623
洋	-9.45718
負	-9.45751
格	-9.45867
知り	-9.45911
▁おれは	-9.45982
忘れて	-9.4599
話す	-9.46008
遠い	-9.46056
考えている	-9.46209
ニ	-9.46225
を受けた	-9.46279
だな	-9.46322
すと	-9.46334
の方	-9.46549
見せ	-9.46554
太	-9.46596
特	-9.4663
はい	-9.46644
せば	-9.46691
分る	-9.46713
云われ	-9.46734
泊	-9.46921
伺	-9.46924
いっこう	-9.46928
貰	-9.46945
下りて	-9.47155
誘	-9.47169
一面に	-9.47195
にしても	-9.4728
という意味	-9.47307
になり	-9.47318
先生が	-9.4748
たとい	-9.47521
叔父さん	-9.4755
一口	-9.47573
羽	-9.47622
オ	-9.47623
真中	-9.4774
任	-9.4775
して来た	-9.47767
映	-9.47913
の中から	-9.48152
届	-9.48189
▁なるほど	-9.48201
へ来て	-9.48317
じっと	-9.48347
区別	-9.4835
くらいな	-9.48395
のさ	-9.48406
と考えた	-9.48409
嫁	-9.48416
己れ	-9.48438
と主人は	-9.4844
目の	-9.48455
学生	-9.48456
なさる	-9.48466
もあった	-9.48474
もいい	-9.48488
其所	-9.48521
便	-9.4863
固より	-9.48747
るのが	-9.48761
かなかった	-9.48795
呑	-9.48812
生き	-9.48823
軽	-9.48865
眺めた	-9.48867
タ	-9.48997
男だ	-9.48998
生涯	-9.49047
刀	-9.49051
価値	-9.49053
の方は	-9.49073
見せる	-9.4908
男の	-9.491
おいて	-9.49131
までは	-9.49136
兄が	-9.4914
マ	-9.49176
上る	-9.49197
かし	-9.4921
違う	-9.49279
頭が	-9.49305
るような	-9.49318
に来た	-9.49406
切った	-9.49525
食って	-9.49554
と言った	-9.49555
深く	-9.49629
人物	-9.4964
ませんでした	-9.49649
その日	-9.49695
容	-9.49705
術	-9.49748
と同時に	-9.49768
逼	-9.49771
紫	-9.49771
矢	-9.49771
貸	-9.49772
横に	-9.49779
形式	-9.49805
どうぞ	-9.4983
というのは	-9.49837
つてゐた	-9.49857
ほかの	-9.49871
恐	-9.49925
▁もう	-9.49965
の上を	-9.49991
水を	-9.5004
一歩	-9.50122
質問	-9.50189
苦笑	-9.50194
潜	-9.50237
上り	-9.50325
正面	-9.50336
働	-9.50436
市	-9.50488
王	-9.50491
隔	-9.50495
魂	-9.50496
毫も	-9.50559
夫人	-9.50587
せない	-9.50597
の通り	-9.50599
笑いながら	-9.5061
余が	-9.50658
平気で	-9.50665
際	-9.50728
出て来る	-9.50739
んだね	-9.50747
ければ	-9.50823
何が	-9.50842
入って	-9.50903
換	-9.51052
面白	-9.51103
つつある	-9.51126
ところへ	-9.51128
今夜	-9.51143
弟	-9.51204
i	-9.51209
蔵	-9.51218
掘	-9.51225
領	-9.51226
冗談	-9.51226
穏	-9.51226
と云うと	-9.51227
つつ	-9.5129
言う	-9.51357
どこか	-9.51389
あつた	-9.51395
▁自分が	-9.51411
折れ	-9.51528
▁今まで	-9.51582
そこへ	-9.51607
誰が	-9.51629
年の	-9.51653
事が出来	-9.51705
というもの	-9.51714
▁自分の	-9.51776
眼が	-9.51808
いって	-9.51859
るんだ	-9.51862
となく	-9.51901
期	-9.51908
皿	-9.51961
淋しい	-9.51961
叙述	-9.51963
おいた	-9.5198
義理	-9.51988
そう云う	-9.51991
者の	-9.52016
顔が	-9.52156
抜け	-9.52162
盛	-9.52238
やしない	-9.52258
人間は	-9.52284
できた	-9.52324
りする	-9.52389
山の	-9.52472
の前で	-9.5263
通じ	-9.5263
守	-9.52691
遺	-9.527
幕	-9.52701
証拠	-9.52703
微笑	-9.52719
交際	-9.52726
だけを	-9.52757
なあ	-9.52784
色を	-9.52797
それでも	-9.52993
右の	-9.53009
真似	-9.53026
そこで	-9.53123
ようです	-9.53142
調子で	-9.53265
方は	-9.53281
やう	-9.53402
r	-9.53434
こうして	-9.53444
ついでに	-9.53448
に相違ない	-9.53458
んじゃない	-9.53487
御覧	-9.53497
何となく	-9.5362
を取って	-9.53728
二度	-9.53818
一般	-9.53841
追い	-9.53846
兄さんは	-9.53989
個人	-9.54019
つてゐる	-9.54027
かれ	-9.54031
烈	-9.54056
嫁に	-9.54065
ありました	-9.54187
ナ	-9.542
講義	-9.54206
母が	-9.54236
これほど	-9.54282
であるから	-9.54286
りながら	-9.54305
影響	-9.54311
知らなかった	-9.54323
しまいに	-9.54339
無い	-9.54378
はたして	-9.54441
後の	-9.54501
所が	-9.54518
近く	-9.54548
我々	-9.54587
読	-9.54625
爺さん	-9.54638
去	-9.54642
向うの	-9.54647
してくれ	-9.54673
染	-9.54691
なんだから	-9.54725
隣り	-9.54733
去る	-9.54756
意見	-9.54764
案	-9.54776
どうでも	-9.54799
どこから	-9.54884
島	-9.5494
順	-9.54944
厳	-9.54958
覚悟	-9.54973
別段	-9.54992
は少し	-9.55214
▁私が	-9.55298
べく	-9.55304
坐って	-9.55329
感じが	-9.5542
ばかりで	-9.55438
云わ	-9.55444
加え	-9.55458
まし	-9.55577
付いて	-9.55592
珍	-9.55659
紹介	-9.55722
菓子	-9.55731
文字	-9.55815
ったら	-9.55838
とか云う	-9.55926
眺め	-9.55939
不平	-9.56018
▁第一	-9.56127
るほど	-9.56166
ますます	-9.56216
▁これが	-9.56234
言った	-9.56376
なんぞ	-9.56474
焦	-9.56488
恥	-9.56489
城	-9.5649
鼠	-9.5649
儘	-9.5649
茶碗	-9.5649
泥棒	-9.56499
あすこ	-9.56513
両方	-9.5654
むずかしい	-9.56588
はありません	-9.56608
何だ	-9.56616
あなた方	-9.56703
下女が	-9.56826
を着て	-9.56845
帰って来た	-9.56981
かも知れないが	-9.57072
伴	-9.57163
徳	-9.57222
魚	-9.57264
浪	-9.57265
あたかも	-9.57265
員	-9.57265
貴	-9.57267
打ち明け	-9.57283
小僧	-9.57284
しなければ	-9.57338
新しい	-9.574
中の	-9.57442
書く	-9.57526
万事	-9.57581
屋の	-9.57598
てしまった	-9.57705
好き	-9.57707
押	-9.57756
はあるまい	-9.57873
本当	-9.5789
もんだ	-9.57965
とする	-9.57972
n	-9.58025
条	-9.58043
略	-9.58046
塔	-9.58047
助	-9.58073
一人の	-9.58142
友	-9.58186
あなたに	-9.58327
ではありません	-9.58414
三四郎は	-9.58575
見たい	-9.58651
ゃ	-9.58741
優	-9.58787
おいで	-9.58792
局	-9.58821
させ	-9.58831
ウ	-9.58832
灰	-9.58834
豆	-9.58834
雑誌	-9.58834
理窟	-9.58838
想	-9.5884
勘定	-9.58843
現象	-9.58844
成功	-9.58847
いったい	-9.58856
無理に	-9.58861
科	-9.58875
自分も	-9.58941
▁吾輩は	-9.58983
と思い	-9.59034
談話	-9.59248
の意味	-9.5926
開いて	-9.59269
春の	-9.59315
毎	-9.59354
ごと	-9.59384
走	-9.59397
へ行った	-9.59443
使う	-9.59501
今でも	-9.59544
興	-9.59593
推	-9.59617
酔	-9.59621
母は	-9.59622
兼	-9.59625
縫	-9.59626
弾	-9.59628
りません	-9.59645
内容	-9.59664
たゞ	-9.59681
るる	-9.59707
してゐる	-9.59734
そうさ	-9.59804
らして	-9.59842
と云う事	-9.5986
天気	-9.59888
音を	-9.59937
になっている	-9.59942
遥か	-9.59986
人情	-9.60036
勧め	-9.6008
▁彼らは	-9.60083
感心	-9.60097
駄目	-9.60111
左右	-9.60132
入れて	-9.6015
生れ	-9.60154
留め	-9.60194
来ると	-9.60225
と見える	-9.60283
癖に	-9.60323
ごとに	-9.6035
覚え	-9.60351
ようになった	-9.60412
ム	-9.60425
爪	-9.60427
増	-9.60428
英語	-9.60445
ことによると	-9.60466
気色	-9.60526
真面目に	-9.60608
るか	-9.60612
台所	-9.60624
声で	-9.60651
入り	-9.60658
子が	-9.60674
が好い	-9.60691
さんに	-9.60702
付けて	-9.60797
ここまで	-9.60809
歩く	-9.6086
げた	-9.60912
▁しまいに	-9.61088
健三は	-9.61149
になりました	-9.6116
上った	-9.61174
非	-9.61179
に行った	-9.61201
習	-9.61233
パ	-9.61236
現在	-9.61258
下駄	-9.61292
現代	-9.61293
易	-9.6132
しさ	-9.61369
の前へ	-9.61384
さえすれば	-9.61388
次	-9.6139
の方を	-9.61423
させた	-9.61429
後ろ	-9.61512
こう云う	-9.61522
ならなかった	-9.61572
ときは	-9.61646
があるから	-9.61761
鉢	-9.62025
が出る	-9.62086
ほか	-9.62097
入る	-9.6216
のなか	-9.62171
懸け	-9.62279
馬鹿に	-9.62304
遅	-9.62362
降り	-9.62453
受けた	-9.62459
三度	-9.62473
▁なぜ	-9.62564
貰って	-9.62608
これだけ	-9.62626
したい	-9.62748
兄さんの	-9.62756
針	-9.62785
父は	-9.62789
人生	-9.62826
飾	-9.62861
総	-9.62866
ウィリアム	-9.62867
伸	-9.62867
ツ	-9.62868
以外に	-9.62868
加減	-9.62868
所は	-9.62895
▁然し	-9.62901
でしょうか	-9.62911
離れ	-9.62911
這	-9.62929
橋本	-9.62945
美しい	-9.62977
と云わ	-9.62981
金田	-9.62987
合った	-9.63084
次の	-9.63095
高木	-9.63102
るところ	-9.63229
知っている	-9.63251
どうする	-9.63273
決心	-9.63311
過ぎ	-9.63319
脳	-9.63388
自ら	-9.63409
捕	-9.6342
をつけて	-9.63508
人間が	-9.63539
事だ	-9.6355
欲	-9.63645
縮	-9.63687
旧	-9.63693
どこまでも	-9.63759
失礼	-9.6376
彼には	-9.63791
つまらない	-9.63807
てくれ	-9.63809
込み	-9.63839
継子	-9.63847
死んで	-9.63895
不思議な	-9.6395
上がって	-9.63968
歩いた	-9.64039
大した	-9.64435
含	-9.64463
価	-9.64511
富	-9.64512
日が	-9.64515
危	-9.64524
封	-9.64524
策	-9.64526
貧	-9.64526
箸	-9.64527
滑稽	-9.64527
性格	-9.64556
気味	-9.64634
ごろ	-9.64687
だという	-9.64744
なんです	-9.6477
でもある	-9.65083
接	-9.65155
叔母さん	-9.65186
▁御米は	-9.6523
相手の	-9.65233
沈	-9.65365
漫	-9.65367
括	-9.65367
傘	-9.65367
わからない	-9.654
済む	-9.65413
どころ	-9.6547
人格	-9.65524
をやる	-9.65526
から見ると	-9.65624
門を	-9.65626
礼を	-9.65631
返し	-9.65642
野々宮さん	-9.65649
主人が	-9.65702
示	-9.65769
落ちついて	-9.65773
たった	-9.65779
僕に	-9.65784
が来た	-9.65845
あれは	-9.6598
のみならず	-9.66045
やっと	-9.66072
我慢	-9.66084
ようとする	-9.66107
述べた	-9.66137
知って	-9.66177
▁四	-9.66181
立っていた	-9.66196
樹	-9.66214
広田先生	-9.66214
邪魔	-9.66215
▁実は	-9.66222
えらい	-9.66225
に違いない	-9.66229
文句	-9.66267
踏み	-9.66273
存外	-9.66276
りした	-9.66337
明け	-9.66348
面を	-9.66357
に行く	-9.66476
いざ	-9.66514
おれは	-9.66536
のではない	-9.66635
の念	-9.6678
を離れて	-9.66809
しようと	-9.66817
すべての	-9.66858
うちは	-9.669
仲	-9.66913
まり	-9.66981
常に	-9.66981
拭	-9.66988
同じ事	-9.66995
仏	-9.67069
偽	-9.67069
磨	-9.67069
恰好	-9.67072
はずだ	-9.67104
て来た	-9.67164
地位	-9.672
多く	-9.67215
は今	-9.67297
厭な	-9.67305
耳を	-9.67332
面に	-9.67395
大に	-9.67455
十六	-9.67497
ないように	-9.6753
乗って	-9.67653
とても	-9.67672
われて	-9.67691
顔に	-9.67692
刺	-9.67704
鳴る	-9.67738
▁私	-9.67743
小野さんは	-9.67809
門野	-9.6788
静かに	-9.67904
風呂	-9.67912
馬車	-9.67919
温	-9.6793
柳	-9.6793
星	-9.67931
捲	-9.67932
演説	-9.67946
の話	-9.67948
同時に	-9.67948
過ぎて	-9.6796
旅行	-9.67962
相違	-9.67983
住	-9.68042
あて	-9.68136
引っ	-9.6814
しなければならない	-9.68245
るや否や	-9.68251
そんな事を	-9.68308
だした	-9.68332
元の	-9.68347
になつた	-9.68405
掛け	-9.68461
問題を	-9.68505
題	-9.6851
今に	-9.68551
所作	-9.6856
に見えた	-9.68614
事実を	-9.68623
世に	-9.68717
▁実際	-9.68776
束	-9.68792
漢	-9.68798
鈴	-9.68801
小さな	-9.68802
姉さん	-9.68806
椽側	-9.68838
はすぐ	-9.68906
な事を	-9.68908
ゐ	-9.68925
かつて	-9.68987
たって	-9.69034
会った	-9.69065
用事	-9.69117
気で	-9.69141
おっしゃる	-9.69199
たいてい	-9.69255
受取	-9.69308
学校の	-9.69348
動いて	-9.69407
事で	-9.69411
前へ	-9.69415
芸術	-9.69449
寄せて	-9.69518
もしない	-9.6954
ほどに	-9.69562
して見た	-9.69602
そんな事	-9.69626
森	-9.69628
傾	-9.69664
干	-9.69675
岸	-9.69677
かも知れぬ	-9.69678
窮屈	-9.69683
知識	-9.69689
以来	-9.69703
動き	-9.69714
▁そんな	-9.69719
喰	-9.69756
食った	-9.69763
撫で	-9.69771
戸を	-9.6978
家庭	-9.69826
それぎり	-9.6983
最初	-9.69934
与	-9.69935
子を	-9.6995
延び	-9.69956
ならぬ	-9.69971
改	-9.69972
当分	-9.69988
認めた	-9.70008
吾輩の	-9.70024
五十	-9.70075
後を	-9.70123
道を	-9.70296
ぼく	-9.70313
場所	-9.7044
岡	-9.70464
んですよ	-9.7047
いと	-9.70513
勝手	-9.70524
窮	-9.70547
綿	-9.70562
儀	-9.70563
御父さん	-9.70566
頼	-9.70593
くり	-9.70602
室の	-9.707
茶の間	-9.70726
の顔を見た	-9.70753
応	-9.70801
連中	-9.70817
となって	-9.70832
金の	-9.70889
眺めている	-9.70903
這入る	-9.71048
送って	-9.71064
暑	-9.7113
来た時	-9.71139
作用	-9.71153
正直	-9.71165
いつまでも	-9.71214
ちと	-9.71216
落した	-9.71267
いれば	-9.71282
継	-9.71289
そら	-9.71289
当然	-9.71292
そうである	-9.71311
了	-9.71327
硝子	-9.7137
言葉は	-9.71375
組	-9.71376
揃	-9.71428
織	-9.71443
ハ	-9.71446
産	-9.71449
相手	-9.71454
材料	-9.71455
才	-9.71455
盆	-9.71456
鈍	-9.71456
支那	-9.71458
因果	-9.71466
機嫌	-9.71479
発達	-9.71493
敬太郎は	-9.71504
探	-9.71513
表情	-9.71544
せられた	-9.71597
家は	-9.71603
特色	-9.71637
を眺めた	-9.71665
つま	-9.71707
あなたが	-9.71766
見たら	-9.71811
んですもの	-9.71819
坊	-9.71836
ないで	-9.71853
者が	-9.71856
崩	-9.7196
中で	-9.71967
依然として	-9.7205
黙っていた	-9.72063
貰った	-9.72083
はある	-9.721
三日	-9.72158
今朝	-9.72172
飛んで	-9.72291
演	-9.72337
岩	-9.72356
停車場	-9.72356
ヴ	-9.72357
虫	-9.72357
危険	-9.72359
明治	-9.72383
判断	-9.72417
始めから	-9.72448
尻	-9.7246
双方	-9.72465
歩き	-9.72471
が出来	-9.72486
三つ	-9.72512
低い	-9.72517
いろいろな	-9.72583
寒月	-9.72586
宗近君	-9.72588
酒を	-9.72618
茶を	-9.72629
寝ている	-9.72669
加	-9.72719
繰	-9.72748
▁K	-9.72759
られている	-9.72759
を受けて	-9.7276
なります	-9.7279
おっしゃ	-9.72848
重い	-9.72867
逢う	-9.72937
少しは	-9.72943
派	-9.72962
芸	-9.73049
上から	-9.73058
坐った	-9.73186
地に	-9.73198
久	-9.73225
してゐた	-9.73229
害	-9.73244
護	-9.73254
滅	-9.73265
冬	-9.73265
癒	-9.73266
咽喉	-9.73266
荒	-9.73266
煮	-9.73266
頁	-9.73267
ダ	-9.73268
軍	-9.73269
服装	-9.73273
ものの	-9.73287
形容	-9.73297
収	-9.73406
妙	-9.73424
段々	-9.73441
特別	-9.73464
誰か	-9.73481
▁御	-9.73494
足音	-9.73533
席を	-9.73592
本当の	-9.73611
色々	-9.73636
繰り	-9.7371
と云つた	-9.73758
いていた	-9.73764
合って	-9.73765
事だから	-9.73882
おく	-9.73913
だい	-9.73947
まれ	-9.74017
力を	-9.74074
権	-9.74087
得ない	-9.74126
吉	-9.74134
生れて	-9.74142
仕方がないから	-9.74144
合せた	-9.74146
添	-9.74154
さなかった	-9.74165
辛	-9.74171
泥	-9.74172
禅	-9.74178
▁どうも	-9.74179
ずいぶん	-9.74183
外套	-9.74185
文章	-9.74193
開化	-9.74219
顔をした	-9.74232
着け	-9.74257
するもの	-9.74308
心が	-9.74309
と自分は	-9.7431
四十	-9.74375
にくい	-9.7439
りを	-9.74406
▁小林は	-9.74431
し得る	-9.74471
と言う	-9.74516
婦人	-9.74535
と云つて	-9.74588
▁(	-9.74613
見せて	-9.74619
能く	-9.74629
五分	-9.74674
受	-9.7471
の顔を見て	-9.7479
負け	-9.74811
あらわ	-9.74823
青い	-9.74823
好く	-9.74845
だと思う	-9.74925
じゃありません	-9.74977
空を	-9.7509
袴	-9.75101
弄	-9.75109
杉	-9.75109
唇	-9.75109
エ	-9.75112
信用	-9.75196
心持が	-9.75206
二人は	-9.75211
二郎	-9.75213
半ば	-9.75244
ありがたい	-9.75292
の姿	-9.75293
はずがない	-9.75294
いかん	-9.75559
したもの	-9.75599
できて	-9.75705
させて	-9.75877
軽く	-9.75896
った時	-9.7591
尺	-9.75955
にでも	-9.75979
レ	-9.7599
予	-9.75999
京	-9.76029
摺	-9.76039
刺戟	-9.76043
挟	-9.76044
意志	-9.76057
悲	-9.76082
細君が	-9.76116
さすが	-9.76117
文明	-9.76165
ものがある	-9.76205
送	-9.76265
ものではない	-9.7629
向いた	-9.76312
女に	-9.76363
かして	-9.76376
叔父の	-9.76381
よい	-9.7657
いうと	-9.76648
変り	-9.76699
▁しかしその	-9.76708
次第	-9.76799
目を	-9.76867
思わず	-9.76879
固	-9.76923
圧	-9.76977
塞	-9.76982
甘	-9.76987
相変らず	-9.76987
お貞さん	-9.76987
片づけ	-9.7699
布団	-9.76993
おかしい	-9.76993
からぬ	-9.77
てゐる	-9.77057
感情	-9.77063
らるる	-9.77115
でございます	-9.77118
十七	-9.77182
ばかりである	-9.77238
いつか	-9.77245
上がる	-9.77273
なしに	-9.77311
歴史	-9.77312
おらん	-9.7735
書いてある	-9.77398
かれた	-9.77415
夕	-9.7747
の縁	-9.77493
の裏	-9.77541
という言葉	-9.77588
触れ	-9.77661
塗	-9.77684
たしかに	-9.77712
てゐた	-9.77871
風の	-9.77875
亡	-9.77878
残念	-9.77893
日を	-9.77898
かぬ	-9.77929
減	-9.77933
択	-9.77937
輝	-9.77939
憚	-9.77939
砂	-9.77939
蛇	-9.77939
壺	-9.77939
お兼さん	-9.77941
いわ	-9.7796
それより	-9.77964
寝た	-9.78069
手前	-9.78095
違って	-9.78129
恐ろしい	-9.78201
その中に	-9.7827
好きな	-9.78275
十年	-9.7831
早い	-9.78417
煙草	-9.78481
一時	-9.7849
済	-9.78509
せいか	-9.78561
気の毒な	-9.78602
寐	-9.78656
眼の前に	-9.78692
通りに	-9.78706
比較	-9.78742
が急に	-9.78751
食べ	-9.78759
やかな	-9.78777
尻を	-9.78782
つもりだ	-9.7884
▁今度は	-9.78856
往	-9.7886
場合に	-9.78882
否	-9.78885
日は	-9.78888
浴	-9.78888
印	-9.78897
仕方なしに	-9.789
剣	-9.78901
劣	-9.78901
専門	-9.78914
権利	-9.78923
出て来て	-9.78939
来ました	-9.78959
▁高柳君は	-9.78961
と同じ事	-9.7898
手拭	-9.78993
呑み	-9.79054
読者	-9.79129
襖	-9.79162
物の	-9.79168
読む	-9.79186
よかろう	-9.79302
旨い	-9.79327
坐っている	-9.79348
困った	-9.79414
呉れ	-9.79431
とすると	-9.79455
の底に	-9.79486
ゆる	-9.7951
付いた	-9.79526
▁つまり	-9.79541
影を	-9.79542
妙に	-9.79545
張って	-9.7958
彼女に	-9.79623
地面	-9.79673
廻って	-9.79705
踏	-9.79734
吾人	-9.79788
高柳君	-9.79811
もせず	-9.7983
復	-9.79847
毒	-9.79852
好意	-9.79858
l	-9.79861
資格	-9.79871
h	-9.79872
官	-9.79872
デ	-9.79873
愛嬌	-9.79874
試験	-9.79874
如く	-9.79877
岡本	-9.79927
見れば	-9.79928
だと思って	-9.79955
やかに	-9.79963
に陥	-9.80009
道楽	-9.80023
消え	-9.80079
眼の	-9.80153
静か	-9.80158
心は	-9.80178
同じく	-9.80209
それまで	-9.80341
かす	-9.80419
方へ	-9.8051
互	-9.80535
並んで	-9.80539
人で	-9.80607
態度を	-9.8063
の口から	-9.80632
障	-9.80639
いくらでも	-9.80678
話は	-9.807
立てた	-9.80753
脱	-9.80796
報	-9.80824
股	-9.80835
標	-9.80851
美くしい	-9.80852
距離	-9.80852
眸	-9.80853
財産	-9.80854
尤も	-9.80879
妻君	-9.80898
天井	-9.80922
一杯	-9.80931
はけっして	-9.80941
寄って	-9.80988
に過ぎなかった	-9.81064
頭の上	-9.81084
這入った	-9.81095
が来て	-9.81155
おれが	-9.81175
変った	-9.8124
津田に	-9.81244
きながら	-9.81273
が出来る	-9.81325
を受け	-9.81328
ったって	-9.81496
と思ったら	-9.815
があります	-9.81517
考えていた	-9.81557
と云えば	-9.81596
を出た	-9.81636
受ける	-9.81686
西洋人	-9.81795
比	-9.81803
普通	-9.81815
蒲団	-9.81829
好奇心	-9.81842
盾	-9.81843
餅	-9.81843
お父さん	-9.81845
適当	-9.81872
斯う	-9.81893
ないうちに	-9.81895
に取って	-9.81915
屋根	-9.81925
思い切って	-9.81968
続け	-9.82065
病人	-9.82204
以上に	-9.82274
抜けて	-9.82339
先刻から	-9.82341
云つた	-9.82365
でなければ	-9.82369
部分	-9.82397
途中で	-9.82466
ときに	-9.82536
心得	-9.82557
かつた	-9.82585
濡れ	-9.82612
逢った	-9.82672
話が	-9.82688
そうですか	-9.82692
▁兄さんは	-9.82711
一々	-9.82758
却	-9.82787
た時	-9.82802
伏	-9.82825
育	-9.82833
平岡の	-9.82838
仙	-9.8284
サ	-9.82841
始末	-9.82855
料理	-9.82858
男である	-9.82859
あらゆる	-9.8286
坂井	-9.82863
旨く	-9.82869
弁解	-9.82895
▁何でも	-9.82928
ことを	-9.82977
たくなった	-9.83044
穿	-9.83073
なくなって	-9.83085
格子	-9.83135
開いた	-9.83191
よそ	-9.83236
ものはない	-9.83254
の事で	-9.83291
我々は	-9.83381
悟	-9.83384
分った	-9.83387
本人	-9.83402
教えて	-9.83444
風が	-9.83499
先生に	-9.83582
父が	-9.83596
十分	-9.83685
見ていた	-9.83731
下の	-9.83739
外国	-9.838
屈	-9.83831
吉川	-9.83833
一週間	-9.83852
浜	-9.83853
脚	-9.83853
御覧なさい	-9.83872
呼ぶ	-9.83874
に過ぎない	-9.83949
手で	-9.83964
二三度	-9.84029
へ出る	-9.84081
忘れた	-9.84158
べて	-9.84186
しまって	-9.84257
会話	-9.84269
質問を	-9.84317
以上の	-9.84535
そんなら	-9.84578
の間から	-9.84596
こう云った	-9.84613
旦那	-9.8471
言葉が	-9.84723
よかった	-9.84735
かしら	-9.84775
がないから	-9.84807
声は	-9.84817
治	-9.84839
校長	-9.84841
薄い	-9.84848
鮮	-9.84849
仕舞	-9.84851
速	-9.84863
ケ	-9.84872
羅	-9.84873
u	-9.84873
奪	-9.84873
叱	-9.84873
明瞭	-9.84874
ような気がした	-9.84878
講演	-9.84878
相当の	-9.84879
憐れ	-9.84896
遠慮なく	-9.8498
だと思った	-9.85002
のごとき	-9.85046
手段	-9.85053
芸者	-9.8508
だれ	-9.85089
持って来た	-9.85093
映る	-9.85131
吹く	-9.85185
信じ	-9.85242
座敷へ	-9.8525
崩れ	-9.85322
暖	-9.85323
折々	-9.85343
残る	-9.85345
さぞ	-9.85364
降りて	-9.85416
くない	-9.85418
済んだ	-9.85421
一方	-9.85423
意味で	-9.85475
作家	-9.85482
頼んで	-9.85519
ような心持	-9.85573
聴いて	-9.85614
と聞く	-9.85651
から出る	-9.85684
相手に	-9.85684
締め	-9.85707
都	-9.85856
裸	-9.85871
芋	-9.85894
鋭	-9.859
篇	-9.85903
琴	-9.85903
ャ	-9.85904
グ	-9.85905
だらけ	-9.85914
抜いて	-9.85918
退屈	-9.8592
沢山	-9.8594
傾向	-9.85967
するのが	-9.85987
十円	-9.86053
と言って	-9.86154
あとで	-9.86195
話をする	-9.86295
飲んで	-9.86321
変って	-9.86352
民	-9.86388
清子	-9.86396
明かに	-9.86397
宜	-9.86439
泣き	-9.8646
吸	-9.86466
のようなもの	-9.86492
だけである	-9.86573
決	-9.86661
明らかに	-9.86721
するような	-9.86738
今日の	-9.86743
その他	-9.86897
合せて	-9.86927
訳で	-9.86942
バ	-9.86944
ぷ	-9.86945
舟	-9.86945
札	-9.86945
催促	-9.86945
自信	-9.86981
森本	-9.87005
会社	-9.87008
左右に	-9.87013
便宜	-9.87021
写真	-9.87022
御米の	-9.87145
隅	-9.87173
身分	-9.87191
頭の中に	-9.87246
よし子	-9.87379
ということ	-9.87471
認めて	-9.87524
帽子	-9.87702
始	-9.87709
堅	-9.87717
消えて	-9.87812
工	-9.87817
汚	-9.87835
付けた	-9.87865
拝	-9.87899
人も	-9.87905
眺める	-9.87935
悲し	-9.87943
兄さんが	-9.87971
兵	-9.87997
ゴ	-9.87997
A	-9.87998
崖	-9.87998
占	-9.87998
妾	-9.87998
塊	-9.87998
滅多に	-9.87999
汗	-9.87999
頭を下げ	-9.88003
っきり	-9.8801
安井	-9.88037
分り	-9.88088
続いて	-9.88117
一層	-9.88121
松本	-9.88153
あいだ	-9.88237
▁三千代は	-9.8827
訴え	-9.88309
ところに	-9.88321
あれば	-9.88369
生きている	-9.8839
するように	-9.88428
手の	-9.88462
宿屋	-9.88512
ところは	-9.88546
云わない	-9.8856
微	-9.88601
を読んで	-9.88611
驚か	-9.88611
一句	-9.88618
似ている	-9.88731
関係を	-9.88756
一人が	-9.88758
厚	-9.88781
舞	-9.88802
しちゃ	-9.88935
敲	-9.8903
誠	-9.89037
装	-9.89047
頂	-9.89061
児	-9.89062
尋常	-9.89071
訪問	-9.89073
比田	-9.8908
としては	-9.89094
一時間	-9.89095
工夫	-9.89098
左様	-9.89147
と違って	-9.8917
いずれ	-9.89171
兄は	-9.89177
色が	-9.89187
せい	-9.89219
のかと	-9.89239
を聞いた	-9.89287
気に入	-9.89327
並べて	-9.89341
三四郎の	-9.89366
気楽	-9.89382
するために	-9.89461
大きく	-9.89497
ばかりだ	-9.89518
話をした	-9.896
作り	-9.8962
答へ	-9.89788
左へ	-9.90061
あげ	-9.90076
となると	-9.90103
成立	-9.90109
永	-9.90128
華	-9.90135
猛	-9.90136
堀	-9.90137
H	-9.90137
袂	-9.90137
幾分か	-9.90138
いっぱい	-9.90138
おとなしく	-9.90139
見よう	-9.90145
真直に	-9.90147
誤解	-9.90153
▁此	-9.90225
の好い	-9.90259
十八	-9.90286
丸い	-9.90318
▁甲野さんは	-9.90319
例のごとく	-9.90322
どん	-9.90343
態度で	-9.90344
ができる	-9.90355
一種	-9.90509
書物を	-9.90617
どこかに	-9.90637
延	-9.90679
西洋の	-9.90771
勝手に	-9.90776
なければならぬ	-9.90788
最後の	-9.90819
の色が	-9.90906
眼は	-9.90923
挙	-9.90928
どれ	-9.90936
描いて	-9.90966
暗に	-9.90983
米	-9.91015
宵	-9.91047
取れ	-9.91105
兄と	-9.91109
やあ	-9.9121
に於て	-9.91218
冊	-9.91218
絹	-9.91224
おおかた	-9.91224
ブ	-9.91224
紳士	-9.91224
努力	-9.91225
温泉	-9.91226
規則	-9.91226
失敬	-9.91234
になっていた	-9.9126
くらいに	-9.91265
なおさら	-9.91282
眼鏡	-9.91315
入れる	-9.91331
梅子	-9.91346
立てる	-9.91393
四方	-9.91432
って来る	-9.91495
わし	-9.91498
余地	-9.91503
らざる	-9.91528
と思うと	-9.9153
藤尾は	-9.91551
ようにして	-9.91592
くと	-9.91659
頭は	-9.91713
認	-9.91728
黒く	-9.91755
寝る	-9.9177
纏め	-9.91797
これでも	-9.91871
笑って	-9.91884
からず	-9.91904
なければならん	-9.91913
道也	-9.9193
って行く	-9.92058
申す	-9.92096
落ちる	-9.92115
が一番	-9.92148
聞いている	-9.92165
郎	-9.9217
国家	-9.9221
擦	-9.92247
取る	-9.92265
因	-9.92269
わなかった	-9.92294
は必ず	-9.92302
煩	-9.92321
雪	-9.92322
ュ	-9.92322
その人の	-9.92335
しだいに	-9.92351
どのくらい	-9.92353
かねて	-9.92359
依頼	-9.9236
裏に	-9.92364
云ひ	-9.9238
親類	-9.92381
解らなかった	-9.92398
ようである	-9.9245
どういう	-9.92462
るから	-9.92478
したのである	-9.92509
んですが	-9.92517
自然と	-9.92527
りして	-9.92558
平生の	-9.92622
しばらくして	-9.92636
だとか	-9.92655
ばかりの	-9.92689
を向いて	-9.92706
働き	-9.92712
三四	-9.92714
し始めた	-9.92723
できるだけ	-9.92729
なるもの	-9.92755
十九	-9.92784
の上から	-9.92899
したのは	-9.93
ものであります	-9.93001
うて	-9.93011
思い出した	-9.93071
▁ところへ	-9.93171
描	-9.93207
言葉で	-9.93215
その頃	-9.93225
ございます	-9.93302
供	-9.93346
顔の	-9.93378
り出した	-9.93427
密	-9.93431
殆んど	-9.93431
廃	-9.93434
熟	-9.93434
やむをえず	-9.93434
遂	-9.93434
寂	-9.93435
ポ	-9.93435
亭主	-9.93437
お延に	-9.93437
境遇	-9.93437
賛成	-9.93438
しましょう	-9.93438
髪を	-9.93483
御米は	-9.93485
二三日	-9.93488
そっと	-9.93554
▁最後に	-9.93565
もんだから	-9.93584
も何も	-9.93591
惜しい	-9.93666
多くの	-9.93724
わたし	-9.93763
倒	-9.93811
手際	-9.93828
事があった	-9.93838
事もない	-9.9385
思え	-9.93863
初め	-9.93907
なのです	-9.93935
一点	-9.93955
答える	-9.94057
置き	-9.94138
ござ	-9.94166
真面目な	-9.94187
恐ろし	-9.94252
熱心	-9.94252
というものは	-9.94299
くれない	-9.94303
子は	-9.94458
に引き	-9.94481
量	-9.94492
たかった	-9.94492
んでいた	-9.94498
澄	-9.94522
乙	-9.94549
巧	-9.94554
向こう	-9.94554
あの人	-9.94554
鎖	-9.94557
肌	-9.94558
習慣	-9.94558
銅	-9.94558
卸	-9.94558
到底	-9.9456
ましょうか	-9.94561
載せて	-9.94569
昨夜	-9.94571
種類	-9.94582
道具	-9.94594
何物	-9.94595
避け	-9.94599
注文	-9.94602
次に	-9.94647
自白	-9.94669
行為	-9.94678
自分達	-9.94679
時間を	-9.94783
可愛	-9.94813
暑い	-9.94969
してくれる	-9.9502
その晩	-9.95023
▁この時	-9.95083
一般の	-9.95099
大切	-9.95115
臭	-9.95115
三千代の	-9.95161
▁自分も	-9.95264
に入る	-9.95294
当時の	-9.95375
▁あれ	-9.95389
友人	-9.95471
▁男は	-9.9551
敬太郎の	-9.9551
駄	-9.95524
合わせ	-9.9558
かろう	-9.95597
裁	-9.95659
の真中に	-9.95672
柔	-9.95685
称	-9.95691
館	-9.95693
d	-9.95694
粉	-9.95694
髭	-9.95694
凄	-9.95695
躇	-9.95695
るんです	-9.95701
までも	-9.95704
冷淡	-9.95706
んだか	-9.95758
まさか	-9.95776
▁あるいは	-9.95784
となる	-9.95858
分らなかった	-9.95864
ようとした	-9.96053
心理	-9.96113
主張	-9.96124
の傍に	-9.96157
食わ	-9.9623
抜ける	-9.96248
は固より	-9.96253
臭い	-9.96277
前から	-9.96283
ずっと	-9.96283
一体	-9.96433
読んだ	-9.96437
慰	-9.96449
いながら	-9.96523
虚	-9.96592
腹が	-9.96598
愛想	-9.96686
使い	-9.96716
母に	-9.96761
適	-9.96807
棚	-9.96828
属	-9.9683
商	-9.96831
純	-9.96834
ボ	-9.96841
貫	-9.96842
宛	-9.96842
誇	-9.96843
珠	-9.96843
胆	-9.96844
拾	-9.96844
衆	-9.96844
にやにや	-9.96845
令嬢	-9.96845
を以て	-9.96847
巡査	-9.96847
和尚	-9.9685
市蔵	-9.96856
平生から	-9.96861
困難	-9.96871
を持ち	-9.96878
スト	-9.96921
進行	-9.96945
当り前	-9.96984
足の	-9.97005
差支ない	-9.97022
だろうと思う	-9.97031
二人の間に	-9.97046
向けて	-9.97057
どこに	-9.97074
こんな事を	-9.97107
やす	-9.97156
彼らは	-9.97158
見物	-9.97181
▁奥さんは	-9.97255
二人とも	-9.97278
自分には	-9.97285
事を云う	-9.97296
続き	-9.97327
合わない	-9.97344
暗く	-9.9741
何故	-9.97411
知った	-9.97416
経過	-9.97488
かと思って	-9.975
路を	-9.9752
互に	-9.97591
気がついて	-9.97592
られなかった	-9.9767
分別	-9.97675
なものだ	-9.9769
起きて	-9.97707
たった一人	-9.97715
彼女が	-9.97762
るだろう	-9.97771
と思ふ	-9.97791
男であった	-9.97804
四つ	-9.979
大きな声	-9.97915
試	-9.97918
十四	-9.97943
据	-9.97959
闇	-9.97993
蓋	-9.98005
にもかかわらず	-9.98006
御馳走	-9.98006
炭	-9.98007
尊敬	-9.98008
乱暴	-9.98011
永久	-9.98013
に触れ	-9.98014
いたずら	-9.98015
を相手に	-9.98017
食卓	-9.9802
文鳥	-9.98059
が見える	-9.98065
っぽ	-9.98098
以後	-9.98103
飲んだ	-9.98125
御前の	-9.98144
遊びに	-9.98184
次第に	-9.9824
勢い	-9.98245
から云えば	-9.98252
事もある	-9.98255
を眺めて	-9.9826
室に	-9.98263
▁要するに	-9.98329
見ろ	-9.98342
してくれた	-9.98346
車夫	-9.98361
本来	-9.98437
立た	-9.98454
開けて	-9.98479
聞いていた	-9.98515
旨	-9.98633
女を	-9.98658
ねば	-9.98694
英国	-9.98695
赤く	-9.98699
幸	-9.98735
宗助の	-9.98773
なれば	-9.98805
このくらい	-9.9883
がった	-9.98854
ぢや	-9.98985
▁そこへ	-9.99005
ものです	-9.9901
りゃ	-9.99014
くなつた	-9.9903
▁......	-9.991
仕切	-9.99118
功	-9.99164
議	-9.99165
激	-9.99177
メ	-9.99182
噛	-9.99183
紋	-9.99183
と思つた	-9.99196
徳義	-9.99198
参考	-9.99202
ペン	-9.99207
重ねて	-9.99208
思想	-9.99212
不幸	-9.99214
息を	-9.9925
頼む	-9.99255
知ら	-9.99264
凡て	-9.99292
立場	-9.99312
思ひ	-9.99342
感ずる	-9.99446
他に	-9.99525
手数	-9.99569
行つた	-9.99578
不足	-9.99584
であるが	-9.99611
来てくれ	-9.99619
借	-9.99761
方法	-9.99783
掻	-9.99787
▁次に	-9.99835
張った	-9.99887
如	-9.99918
降	-9.99919
詩人	-9.99935
来い	-9.99948
の影が	-9.99987
作った	-9.99991
あとから	-9.99995
違い	-10.0002
動かない	-10.0003
だけれども	-10.0009
梅	-10.0014
ようだが	-10.0014
散ら	-10.0022
▁これで	-10.0022
執	-10.0022
身体を	-10.0022
載	-10.0035
仮	-10.0035
捨	-10.0037
撃	-10.0037
型	-10.0037
桜	-10.0037
緑	-10.0037
潮	-10.0037
紀	-10.0037
裾	-10.0037
溜	-10.0037
贅沢	-10.0037
ありがとう	-10.0037
いけません	-10.0038
教授	-10.0038
談判	-10.004
位置	-10.0043
せんだって	-10.0046
▁元来	-10.0049
いかなる	-10.0051
知らせ	-10.0052
笑い出した	-10.0053
だろうと思って	-10.0055
この男	-10.0055
吾々	-10.006
肝心の	-10.0062
個	-10.0062
▁のみならず	-10.0063
に近い	-10.0064
を買って	-10.0067
になつて	-10.0069
日本人	-10.0073
されている	-10.0079
いえば	-10.0081
らずに	-10.0083
であって	-10.0091
煙草を	-10.0095
か何か	-10.0096
構え	-10.0108
一年	-10.0108
野だ	-10.0121
出てくる	-10.0125
ぶり	-10.0126
時間が	-10.0129
枚	-10.0129
近頃は	-10.0139
哲学	-10.0143
出入	-10.0149
坑	-10.0152
象	-10.0155
承	-10.0156
務	-10.0156
ものだろう	-10.0157
腐	-10.0158
ノ	-10.0158
頸	-10.0158
与次郎が	-10.0158
いきなり	-10.0158
光景	-10.016
据えて	-10.0161
風呂場	-10.0161
こりゃ	-10.0163
▁現に	-10.0164
居た	-10.0167
なかったのです	-10.0175
でせう	-10.0185
我々の	-10.019
つら	-10.0192
を入れて	-10.0199
瞬間	-10.02
事ができた	-10.0201
払って	-10.0203
帽子を	-10.0207
持って来て	-10.0211
過去の	-10.0213
▁こういう	-10.0217
一間	-10.0222
▁こう云う	-10.0225
心持がした	-10.023
中学	-10.023
を使って	-10.0242
気の毒だ	-10.0256
仰向	-10.0265
聞える	-10.0266
▁ある時	-10.0277
講	-10.0278
プ	-10.0279
烏	-10.028
塵	-10.028
探偵	-10.028
ぴたりと	-10.028
省	-10.028
ズ	-10.028
に堪え	-10.0284
木の	-10.0286
元気	-10.0287
いまだに	-10.0295
の角	-10.0296
知る	-10.0297
んだい	-10.0299
呼んだ	-10.0299
と同	-10.0304
ますから	-10.0307
やすい	-10.0313
相応	-10.0315
ぶら	-10.0318
苦しく	-10.0319
違った	-10.0321
は依然として	-10.0322
安さん	-10.0324
どこかへ	-10.0334
意外	-10.0335
文学者	-10.0344
見つめ	-10.0347
づいた	-10.035
少ない	-10.0357
動いた	-10.0361
というような	-10.0363
細君に	-10.0371
あんなに	-10.0383
るために	-10.0387
はすでに	-10.0389
直して	-10.0391
懸けて	-10.0393
旅	-10.0397
歳	-10.0402
囲	-10.0403
『	-10.0403
算	-10.0403
』	-10.0403
版	-10.0403
料簡	-10.0403
弊	-10.0403
球	-10.0403
曇	-10.0403
欺	-10.0403
肥	-10.0403
大阪	-10.0403
飲む	-10.0407
仕舞つた	-10.0408
の云う事	-10.041
説明した	-10.0411
遠くから	-10.0412
丈夫	-10.0412
何遍	-10.0414
見えなかった	-10.042
が多い	-10.0424
つと	-10.0424
見舞	-10.0428
ように見えた	-10.0431
のでしょう	-10.0435
済まない	-10.0435
足りない	-10.0444
棄て	-10.0445
聞かれ	-10.0445
光る	-10.0446
英	-10.0452
気持	-10.0452
を感じた	-10.046
人だ	-10.0469
遥	-10.0472
を得た	-10.0472
面白く	-10.0473
人から	-10.0475
あいつ	-10.0477
訳だ	-10.0484
を受ける	-10.0485
聞こえ	-10.0496
御前は	-10.0497
黙っている	-10.0508
迎え	-10.0508
事ができ	-10.0515
いったん	-10.0518
かって	-10.052
争	-10.0527
彼の眼	-10.0528
魔	-10.0528
怠	-10.0528
乾	-10.0528
菊	-10.0528
叫	-10.0528
洋杖	-10.0529
下り	-10.0536
公平	-10.0538
不都合	-10.055
締	-10.0552
既に	-10.0554
調子を	-10.0556
全然	-10.056
と思われる	-10.0561
幸い	-10.0568
結構	-10.0572
たまえ	-10.0573
▁彼女の	-10.0576
場合には	-10.0581
打って	-10.059
不思議に	-10.0597
はほとんど	-10.0605
が出た	-10.0607
意味が	-10.0608
の歴史	-10.0611
ことは	-10.0621
べからざる	-10.0625
▁先生の	-10.0627
足が	-10.0636
眼で	-10.0638
池	-10.0638
帽	-10.0639
繰り返して	-10.0641
未来の	-10.0642
給	-10.0642
帰りに	-10.0647
えない	-10.0651
忍	-10.0653
責	-10.0654
源	-10.0654
慾	-10.0655
セ	-10.0655
効	-10.0655
ヴァイオリン	-10.0655
俥	-10.0655
条件	-10.0655
法則	-10.0656
問答	-10.066
屋敷	-10.0663
二日	-10.0667
若い女	-10.0671
出ている	-10.0677
腹の中	-10.0678
注意を	-10.068
たくない	-10.0681
らせる	-10.0682
残っている	-10.0688
着いて	-10.0696
偉い	-10.0698
の数	-10.0699
三年	-10.07
側に	-10.0711
容易	-10.0718
両人	-10.072
してしまう	-10.0721
廻る	-10.0727
も構わない	-10.0737
覚えてい	-10.0737
▁僕の	-10.0746
を読む	-10.0754
そんなもの	-10.077
の根	-10.0776
納	-10.078
壊	-10.0782
氏	-10.0783
剥	-10.0783
豊	-10.0783
滴	-10.0783
非常な	-10.0783
食事	-10.0786
と云うものは	-10.08
を眺めていた	-10.0802
を抱いて	-10.0805
用意	-10.0805
なすった	-10.0807
一応	-10.0811
告	-10.0812
実行	-10.0813
の音が	-10.0813
最	-10.0813
きまって	-10.0815
解決	-10.0818
と答えて	-10.0823
の方では	-10.0831
あとは	-10.0834
下す	-10.0836
▁彼が	-10.084
も同じ	-10.0843
と思つて	-10.0843
に至っては	-10.0848
もしなかった	-10.0857
然たる	-10.0863
御出	-10.0868
たくなる	-10.0873
に出た	-10.0879
見えて	-10.0885
出された	-10.0886
下りた	-10.0889
金は	-10.0891
繰り返した	-10.0892
御話	-10.0902
御客	-10.0903
彼と	-10.0904
大変な	-10.0905
を探	-10.0905
する気	-10.0906
尊	-10.0913
朧	-10.0913
傷	-10.0913
胴	-10.0913
挨拶をした	-10.0913
倚	-10.0913
痕	-10.0913
ともかくも	-10.0913
元来	-10.0913
原稿	-10.0913
刺激	-10.0913
順序	-10.0913
跳ね	-10.0916
是公	-10.0917
月給	-10.0917
悉く	-10.0918
拵えて	-10.092
最後に	-10.0926
に似た	-10.0927
端書	-10.0928
暮れ	-10.093
の裏に	-10.0931
の奥に	-10.0934
鼻の	-10.094
心得て	-10.0943
席に	-10.0945
は大変	-10.0945
押して	-10.0947
一軒	-10.0955
人のように	-10.0959
染め	-10.0959
その代り	-10.0969
ないんだから	-10.0973
死に	-10.0978
不意に	-10.0978
な顔をして	-10.0988
かと思った	-10.0996
超	-10.1001
そのくらい	-10.1004
狭	-10.1008
たび	-10.1011
夫人の	-10.1014
まで来て	-10.1015
と云っても	-10.1016
聞え	-10.1035
益	-10.1042
緩	-10.1044
只	-10.1044
ピ	-10.1044
よろしい	-10.1045
拍子	-10.1047
利害	-10.1048
拵えた	-10.1051
腹を	-10.1051
論理	-10.1054
を引いて	-10.1054
論文	-10.1054
頼んだ	-10.1055
足袋	-10.1055
を与える	-10.1056
▁与次郎は	-10.1061
言語	-10.1065
有様	-10.107
が違う	-10.1073
一尺	-10.1074
事にした	-10.1078
或る	-10.1081
いいか	-10.1087
のだという	-10.1089
こう云って	-10.1089
んとする	-10.1098
去った	-10.11
動物	-10.11
いられない	-10.1101
電	-10.1104
雨が	-10.111
抛	-10.1113
吐	-10.1116
寝て	-10.1122
なんでしょう	-10.1124
校	-10.1124
彼女を	-10.1125
を呼んで	-10.1126
わぬ	-10.1128
思われた	-10.1137
わずか	-10.1138
げる	-10.114
着く	-10.1142
▁何だか	-10.1153
奇麗な	-10.1158
頭の中	-10.1162
覚えている	-10.1165
それも	-10.1165
ついている	-10.1171
濃	-10.1172
繋	-10.1177
恨	-10.1177
革	-10.1178
刈	-10.1178
疎	-10.1178
!	-10.1178
モ	-10.1178
ミ	-10.1178
視線	-10.1179
便利	-10.1182
いるから	-10.1182
兄弟	-10.1182
至極	-10.1182
百円	-10.1186
もう一遍	-10.1187
見えぬ	-10.1188
実を云うと	-10.1194
云わなかった	-10.1195
驚	-10.1196
いっそ	-10.1197
頼み	-10.1198
垂れ	-10.1198
描いた	-10.1199
リー	-10.1199
中から	-10.1204
去年	-10.1207
まない	-10.1211
と思っている	-10.1213
引く	-10.1214
何らの	-10.122
離れて	-10.1234
肩を	-10.1235
遊んで	-10.1236
窓から	-10.1236
も好い	-10.1243
糸子	-10.1243
張る	-10.1246
しているうちに	-10.1248
何だい	-10.1252
変る	-10.1262
揚	-10.1268
出来事	-10.1272
向けた	-10.1286
ようなものの	-10.129
徒	-10.1291
階	-10.1293
易え	-10.1297
そこを	-10.1306
光を	-10.1308
区	-10.1309
製	-10.1312
鼓	-10.1312
序	-10.1312
のごとくに	-10.1312
旗	-10.1313
たんびに	-10.1313
ちょうだい	-10.1313
胡	-10.1313
煩悶	-10.1313
原口さん	-10.1313
要求	-10.1313
苦労	-10.1315
絶えず	-10.1316
の傍へ	-10.1317
眺めていた	-10.1317
過去を	-10.1319
敷居	-10.1319
ット	-10.132
冷たい	-10.1324
机の上に	-10.133
哲学者	-10.1331
濃い	-10.1341
休み	-10.1344
どこまで	-10.1352
東風君	-10.1354
坐っていた	-10.1357
としか	-10.1359
より外に	-10.1362
詰め	-10.1362
以	-10.1367
宗助が	-10.1374
申した	-10.138
どこで	-10.1384
どこにも	-10.1385
してある	-10.1387
切る	-10.1413
問い	-10.1414
右へ	-10.1414
でも何でも	-10.1421
高等学校	-10.1425
大方	-10.143
は皆	-10.144
之	-10.1446
やれ	-10.1446
宗	-10.1446
料	-10.1447
墨	-10.1449
孔	-10.1449
烟	-10.145
浸	-10.145
祖	-10.145
を帯びて	-10.145
徹	-10.145
桶	-10.145
以外の	-10.145
どてら	-10.145
明るい	-10.1451
商売	-10.1451
留ま	-10.1457
ほぼ	-10.1457
進む	-10.1465
来なかった	-10.1465
すまない	-10.1467
呼	-10.147
昔から	-10.1479
ればいい	-10.1482
何で	-10.1492
用心	-10.1494
何処	-10.1496
響いた	-10.1496
だぜ	-10.1502
ってしまった	-10.151
に入って	-10.1514
おった	-10.1516
天地	-10.1518
三分	-10.1524
室へ	-10.1531
事のない	-10.1537
様子が	-10.1538
空に	-10.154
奥さんは	-10.1542
六畳	-10.1543
断った	-10.1551
なんだろう	-10.1553
吾輩は	-10.1555
いつまで	-10.1559
の力で	-10.1563
わね	-10.1568
父と	-10.1568
乗る	-10.1575
椽	-10.1583
輩	-10.1584
招	-10.1587
ヤ	-10.1588
級	-10.1589
述べ	-10.1589
倉	-10.1589
防	-10.1589
彫	-10.1589
忌	-10.1589
ございません	-10.1589
少なくとも	-10.1589
競争	-10.1589
技巧	-10.1589
予想	-10.159
平凡	-10.159
仕合せ	-10.1594
出ない	-10.1594
及び	-10.1595
するほど	-10.1595
所有	-10.1598
そのうち	-10.1599
これらの	-10.1602
自然に	-10.1605
近寄	-10.1605
池の	-10.1608
飲み	-10.1613
なって来た	-10.1614
であるか	-10.1614
移る	-10.1618
聞こえた	-10.1626
午後	-10.164
奇麗に	-10.164
見詰め	-10.1648
野々宮君	-10.1649
事ができる	-10.165
開く	-10.1657
位地	-10.1659
風を	-10.1661
際に	-10.1667
上がった	-10.1672
兄さんに	-10.1676
家で	-10.168
説明して	-10.1681
尋ねた	-10.1687
れなかった	-10.1688
働か	-10.17
相手が	-10.17
善い	-10.1702
二本	-10.1703
二人が	-10.1705
を有って	-10.1706
重吉	-10.1717
間際	-10.1718
綺麗	-10.172
出立	-10.1725
大丈夫だ	-10.1728
燈	-10.1729
像	-10.1729
霊	-10.1729
蒙	-10.1729
標準	-10.1729
栄	-10.173
殿	-10.173
疾	-10.173
倫敦	-10.173
汁	-10.173
大事に	-10.173
赤毛布	-10.1731
原因	-10.1732
やしません	-10.1732
調和	-10.1733
即ち	-10.1734
結構だ	-10.1738
ますか	-10.1748
強いて	-10.1752
姿勢	-10.1752
利用	-10.1752
心得ている	-10.1754
挙げ	-10.1759
悪口	-10.177
抜けた	-10.1771
▁嫂は	-10.1772
に当る	-10.1773
分りません	-10.1778
だろうと思います	-10.1789
父母	-10.179
は決して	-10.1801
越す	-10.1805
だと云って	-10.1807
説明する	-10.1807
あえて	-10.1812
描き	-10.1815
へ出ると	-10.1819
こっちから	-10.1822
御常	-10.1827
慣れ	-10.1828
と云ったら	-10.1841
▁無論	-10.1841
四五	-10.1843
ような事を	-10.1846
労	-10.1857
述	-10.1867
志	-10.1868
音がする	-10.1871
勘	-10.1871
卑	-10.1872
豆腐屋	-10.1872
ガ	-10.1873
りたい	-10.1873
ぐるぐる	-10.1873
残酷	-10.1873
舞台	-10.1875
大きい	-10.1877
出て行った	-10.1877
現に	-10.1877
細長い	-10.188
観念	-10.1882
黄色	-10.1887
晴	-10.1888
厭だ	-10.1893
世界に	-10.1897
顧み	-10.1904
近所	-10.1911
例の通り	-10.1913
走る	-10.1914
きまり	-10.1916
▁私も	-10.1922
事ができなかった	-10.1924
人々	-10.1933
を求め	-10.1935
悟った	-10.1936
不断	-10.1941
と云う意味	-10.1945
と思えば	-10.1951
住んで	-10.1954
ばかりじゃない	-10.1957
善く	-10.1959
如何に	-10.1965
相手は	-10.1966
洋服	-10.1968
あるものは	-10.1974
ぱ	-10.1976
御気の毒	-10.1979
ますよ	-10.1982
ふん	-10.2
当り	-10.2001
概	-10.2008
依	-10.2011
由	-10.2013
を着た	-10.2015
ベ	-10.2015
叩	-10.2017
ソ	-10.2017
召	-10.2017
猶	-10.2017
縞	-10.2017
丁寧に	-10.2017
呼ばれ	-10.2018
呼吸	-10.2018
自慢	-10.2019
家族	-10.2021
澄まして	-10.2022
光線	-10.2022
好かろう	-10.2023
いくつ	-10.2024
の多い	-10.2025
を打つ	-10.2027
弱点	-10.203
向うから	-10.203
を与えた	-10.2033
日記	-10.2036
出掛け	-10.2038
さずに	-10.2054
たまらない	-10.2056
事のできない	-10.2056
揚げ	-10.2065
被って	-10.2066
ぐる	-10.2068
していない	-10.2072
見えます	-10.2077
掻き	-10.2089
貰い	-10.209
注意した	-10.2096
婆	-10.2112
上へ	-10.2112
れていた	-10.2118
自から	-10.2121
もあり	-10.2125
穿いて	-10.2131
連れ	-10.2137
かも知れませんが	-10.2138
へ乗	-10.214
団	-10.2144
沢	-10.2145
んじゃ	-10.2152
せずに	-10.2154
べた	-10.2158
五円	-10.216
証	-10.216
担	-10.2161
を開けて	-10.2161
佐	-10.2162
を思い出した	-10.2163
壮	-10.2164
杖	-10.2164
氷	-10.2164
掌	-10.2164
譲	-10.2164
豚	-10.2164
m	-10.2164
霜	-10.2165
ワ	-10.2165
交渉	-10.2165
er	-10.2167
現われた	-10.2168
落ちつき	-10.217
買った	-10.2171
主意	-10.2174
了見	-10.2181
来たら	-10.2185
になれば	-10.2188
の方でも	-10.2189
建て	-10.2189
と同じように	-10.2191
なくても	-10.2193
翌日	-10.2194
意地	-10.2195
神さん	-10.2197
自由に	-10.2198
訳がない	-10.2214
行つて	-10.2216
はたしかに	-10.2217
聞えた	-10.2227
鼻の先	-10.2234
ほう	-10.2236
掛ける	-10.2237
どうな	-10.2239
のかね	-10.2247
の事だ	-10.225
差支え	-10.2257
と云う事を	-10.2258
冒	-10.226
認める	-10.2266
迷亭君	-10.2267
建	-10.2267
最初から	-10.2271
荷	-10.2274
遍	-10.2278
晴れ	-10.2286
書斎に	-10.2295
帳	-10.2299
国へ	-10.2301
彩	-10.2307
卒	-10.2312
膨	-10.2314
もちろん	-10.2314
猿	-10.2314
睡	-10.2314
蕎麦	-10.2314
剃	-10.2314
臨	-10.2314
ィ	-10.2314
塀	-10.2314
失敗	-10.2314
弁護	-10.2316
報知	-10.2317
かれて	-10.2318
無頓着	-10.2319
わずに	-10.232
を挙げて	-10.232
前へ出	-10.2321
石段	-10.2324
拝見	-10.2328
▁平岡は	-10.2328
内で	-10.233
とんと	-10.2331
まことに	-10.2333
客観的	-10.2333
から云うと	-10.2334
せられる	-10.2338
々たる	-10.2356
乱れ	-10.2357
景気	-10.236
思い出す	-10.2361
くらいである	-10.2363
以前	-10.2372
いられる	-10.2373
尋ねて	-10.2373
空間	-10.2375
やむ	-10.2377
応え	-10.2383
直す	-10.239
聞いて見た	-10.2392
びた	-10.2403
止め	-10.2405
室の中	-10.2406
立たない	-10.2422
になれ	-10.2427
あれで	-10.2438
未	-10.2441
あの時	-10.2447
読ま	-10.2449
怪し	-10.2451
自分だけ	-10.2452
合い	-10.2456
どこかで	-10.2457
奉	-10.2465
恩	-10.2465
匹	-10.2465
検	-10.2465
雄	-10.2465
孤	-10.2465
涼	-10.2465
g	-10.2465
謡	-10.2465
おそらく	-10.2465
健康	-10.2465
狸	-10.2465
驚ろいて	-10.2465
いらしった	-10.2466
いいでしょう	-10.2466
電報	-10.2466
調戯	-10.2466
我輩	-10.2468
独立	-10.2471
意義	-10.2473
惜し	-10.2474
レー	-10.2474
顔つき	-10.2477
感覚	-10.2478
活力	-10.248
五年	-10.2487
に関する	-10.2492
そこが	-10.2495
虚子	-10.2498
▁お秀は	-10.25
あけて	-10.2508
上等	-10.2508
なければなりません	-10.2525
乗った	-10.2528
のなかで	-10.2536
本位	-10.2537
人間に	-10.2543
でないと	-10.2544
諸	-10.2551
▁其時	-10.2555
景	-10.2556
相手を	-10.2557
ように見える	-10.2559
偉	-10.2566
▁今の	-10.2566
うまい	-10.2582
はいって	-10.2584
一向	-10.259
てしまう	-10.2608
模	-10.2613
察	-10.2616
専	-10.2617
抗	-10.2617
訪	-10.2618
祝	-10.2619
武	-10.2619
昧	-10.2619
翳	-10.2619
郵便	-10.2619
鐘	-10.2619
取り扱	-10.2619
取扱	-10.2621
給仕	-10.2622
に至るまで	-10.2627
あらわれた	-10.2628
拵え	-10.2633
その人	-10.2636
能力	-10.2643
音楽	-10.2645
と思っていた	-10.2645
後へ	-10.2646
寄り	-10.2647
兄に	-10.2648
ものですから	-10.2649
下した	-10.2653
▁下女は	-10.2654
電気	-10.2657
るとき	-10.2673
しようがない	-10.2673
凝	-10.2673
がわるい	-10.2674
逆上	-10.2684
さほど	-10.2688
を通して	-10.2699
触	-10.2704
勤	-10.2706
宗近	-10.2709
呑気	-10.2713
なんですか	-10.2721
枯	-10.2721
事になる	-10.2738
中心	-10.2739
婆さんは	-10.2746
出そう	-10.2752
件	-10.2754
怪	-10.2756
単純な	-10.2762
低	-10.2765
はっと	-10.2765
緒	-10.2773
園	-10.2774
隊	-10.2775
砕	-10.2775
縄	-10.2775
罵	-10.2775
斜めに	-10.2775
途端に	-10.2775
忠告	-10.2776
太郎	-10.2776
中野君	-10.2776
羨まし	-10.2776
無言のまま	-10.2776
割り	-10.2777
名誉	-10.2777
経済	-10.2778
利益	-10.2778
後悔	-10.2779
に従って	-10.278
大きな声を出して	-10.278
大将	-10.2781
厄介	-10.2789
理解	-10.2792
不快	-10.2792
そこまで	-10.2795
三重吉	-10.2796
ではあるが	-10.2799
わかる	-10.2802
心のうちで	-10.2803
なあに	-10.2806
直した	-10.2807
▁それも	-10.281
通った	-10.2818
申します	-10.2821
となった	-10.2828
根本	-10.2829
無言	-10.2832
さき	-10.2835
ように思われた	-10.284
の顔を見る	-10.2845
蒼い	-10.2845
ありゃ	-10.2849
参り	-10.2858
聴き	-10.2866
彼の頭	-10.2868
越した	-10.2869
弱い	-10.2873
泣	-10.2873
君も	-10.2879
買い	-10.2885
顧	-10.2889
これに	-10.2895
読め	-10.2907
▁翌日	-10.2909
ありがた	-10.2909
余に	-10.291
帰って来て	-10.2915
疑い	-10.2925
があれば	-10.2927
吹いて	-10.2931
謎	-10.2931
淡	-10.2932
練	-10.2934
選	-10.2934
営	-10.2934
救	-10.2934
硬	-10.2934
柿	-10.2934
瘠	-10.2934
苛	-10.2934
州	-10.2934
卑怯	-10.2934
藪	-10.2934
倫理	-10.2934
ゆっくり	-10.2934
排	-10.2934
降参	-10.2935
非難	-10.2936
面目	-10.2937
に違なかった	-10.2937
言って	-10.2941
応用	-10.2942
急いで	-10.2942
さらに	-10.2944
綺麗に	-10.2945
出来上った	-10.2946
色に	-10.2948
突っ	-10.2951
一面	-10.2951
渡る	-10.2953
どうかして	-10.2956
宅に	-10.2963
だつて	-10.2975
抜いた	-10.2986
間もなく	-10.2986
ように思われる	-10.2988
陽	-10.2989
御蔭で	-10.2989
映った	-10.299
わるい	-10.299
物語	-10.299
暖か	-10.2991
軽い	-10.2997
云は	-10.2997
奴だ	-10.3005
倒れ	-10.3037
事業	-10.3039
共に	-10.3039
頭から	-10.3042
この女	-10.3043
突いて	-10.3047
らなければならない	-10.3049
待っている	-10.3053
消えた	-10.3065
めいた	-10.3072
られていた	-10.3073
改め	-10.3076
層	-10.3076
林	-10.3089
しつつ	-10.3091
起って	-10.3093
砲	-10.3093
震	-10.3095
委	-10.3095
ネ	-10.3095
ぺ	-10.3095
雅	-10.3095
あいにく	-10.3095
埃	-10.3095
憂	-10.3095
濁	-10.3095
御嬢さん	-10.3095
圧迫	-10.3095
掃除	-10.3095
団扇	-10.3096
つづけ	-10.3096
保証	-10.3096
感謝	-10.3097
隠れ	-10.3098
うまく	-10.3099
本郷	-10.31
呼んで	-10.3101
駆	-10.3103
へ這入って	-10.3103
小野	-10.3104
大概	-10.3105
おれも	-10.3107
ター	-10.3107
してやる	-10.3109
だけあって	-10.311
労力	-10.311
められた	-10.3111
顔色	-10.3114
まらない	-10.3115
下りる	-10.3115
重き	-10.3121
行動	-10.3123
正月	-10.3128
心細い	-10.3132
植	-10.3132
明らか	-10.3137
出なかった	-10.3138
働く	-10.3138
御承知	-10.3144
余も	-10.3149
ですわ	-10.3158
んだからね	-10.3162
だけでも	-10.3163
越して	-10.3166
自分より	-10.3168
別れ	-10.317
事ばかり	-10.3182
学士	-10.3182
から見れば	-10.319
べし	-10.3191
どうだい	-10.3193
この際	-10.3193
されていた	-10.32
甲野	-10.3204
親子	-10.3208
二年	-10.3216
だったので	-10.322
なかに	-10.3224
此方	-10.3231
落す	-10.3235
降りた	-10.3241
一所に	-10.3242
識	-10.3244
美人	-10.3244
解る	-10.3252
驚ろか	-10.3255
群	-10.3259
y	-10.3259
虎	-10.3259
幽霊	-10.3259
屑	-10.3259
冠	-10.326
草履	-10.3261
▁従って	-10.3261
浴衣	-10.3261
呑気な	-10.3262
局部	-10.3262
住居	-10.3263
出来ぬ	-10.3267
苦い	-10.3271
一遍	-10.3273
住み	-10.3274
忙がしい	-10.3275
嫂さん	-10.3277
と主人が	-10.3284
っこ	-10.3285
痛い	-10.3291
の消息	-10.3293
するところ	-10.3296
▁美禰子は	-10.3299
白く	-10.3303
送った	-10.3304
道也先生	-10.3313
見たり	-10.3324
如何	-10.3328
六十	-10.3342
聞いて見ると	-10.3352
を離れた	-10.3354
当て	-10.3361
陽気	-10.3367
ませんか	-10.3368
瞬	-10.3368
書斎へ	-10.3373
僕には	-10.3374
を並べて	-10.3374
こっちへ	-10.3381
ント	-10.3382
必要な	-10.3383
行け	-10.3398
奥へ	-10.3412
今から	-10.3414
はとても	-10.3414
年寄	-10.3417
随	-10.3418
宝	-10.3423
好いでしょう	-10.3423
にあらず	-10.3424
警	-10.3425
鈴木君	-10.3426
絡	-10.3426
瓜	-10.3426
盃	-10.3426
課	-10.3426
聖	-10.3426
カンテラ	-10.3426
ような気がする	-10.3427
評価	-10.3429
個性	-10.3429
評判	-10.343
不幸にして	-10.3431
結論	-10.3434
平気な	-10.3434
この頃	-10.3435
飯場	-10.3436
漸く	-10.3441
ありゃしない	-10.3443
行けば	-10.3444
返事をする	-10.3444
云わずに	-10.3446
苦しみ	-10.3453
やりたい	-10.3455
今では	-10.3456
所まで	-10.3462
代表	-10.3462
所だ	-10.3467
▁それだから	-10.3471
高等	-10.3475
気になる	-10.3496
御茶	-10.3498
きめて	-10.3509
その辺	-10.3521
盛り	-10.3531
二人で	-10.3537
蔭	-10.3539
働いて	-10.3539
燃え	-10.3541
たがる	-10.3558
奇麗	-10.3559
肝	-10.356
が出来た	-10.3564
どっちが	-10.3579
ぱっと	-10.358
聴か	-10.3584
流行	-10.3585
小夜子	-10.3587
事です	-10.3587
などに	-10.3589
誤	-10.3593
幽	-10.3595
奮	-10.3595
独仙君	-10.3595
姓	-10.3595
竜	-10.3595
哀	-10.3595
無邪気	-10.3595
蔽	-10.3595
p	-10.3595
ランスロット	-10.3595
邸	-10.3595
完全	-10.3596
んだがね	-10.3597
情操	-10.3597
in	-10.3597
女房	-10.3599
失望	-10.3601
宜道	-10.3601
薄暗い	-10.3605
でなくって	-10.3606
四人	-10.3606
出て来	-10.3607
三階	-10.3608
しまいました	-10.361
のが厭	-10.3614
▁三沢は	-10.3616
案外	-10.3618
知らん	-10.362
大勢	-10.3628
ああ云う	-10.3629
ならず	-10.363
必要はない	-10.3638
動いている	-10.3639
厚い	-10.364
その時分	-10.3645
わけ	-10.3647
とか何とか	-10.3658
▁しかしそれは	-10.3666
しつつある	-10.3671
解った	-10.3674
放って	-10.3674
を知る	-10.3676
くらいなら	-10.3685
逃	-10.3687
を読んだ	-10.3688
起きた	-10.3691
四角	-10.37
ものじゃない	-10.37
遣る	-10.3701
わず	-10.3713
ラン	-10.3713
藤	-10.3719
というのが	-10.3725
返事をした	-10.3733
安心した	-10.3738
付ける	-10.3741
とくに	-10.3744
ところだ	-10.3755
何年	-10.3756
ほうが	-10.3757
と答える	-10.3759
控	-10.3763
謝	-10.3765
混	-10.3767
尚	-10.3767
暴	-10.3767
籍	-10.3768
に比べると	-10.3768
扉	-10.3768
迹	-10.3768
必竟	-10.3768
俯	-10.3768
炎	-10.3768
箪	-10.3768
紐	-10.3768
豪	-10.3768
茂	-10.3768
孝	-10.3768
朗	-10.3768
拘泥	-10.3768
秘密	-10.3768
有名な	-10.3769
貰いたい	-10.3772
人間として	-10.3772
裸体	-10.3773
における	-10.3777
近い	-10.3777
気になった	-10.3785
貴夫	-10.3786
足らぬ	-10.3786
に関して	-10.3787
悪かった	-10.3787
考えて見ると	-10.379
吐き	-10.3792
にせよ	-10.3797
訳に行か	-10.38
驚く	-10.3801
しておく	-10.3802
膝を	-10.3805
ちっと	-10.3808
発見	-10.3808
方向	-10.3815
の前を	-10.3827
小さく	-10.3831
頭脳	-10.3832
驚いて	-10.3834
御互に	-10.3851
つけられ	-10.3857
持つて	-10.3874
尋ね	-10.388
されない	-10.3893
付き	-10.3894
使った	-10.3897
らよかろう	-10.3899
に至って	-10.39
埋	-10.3901
要領を得	-10.3901
そんな事は	-10.3925
控えて	-10.3929
科学	-10.3934
くらいだから	-10.3935
勝手な	-10.3935
憎	-10.3938
敬	-10.394
則	-10.3941
就	-10.3941
惑	-10.3942
悩	-10.3943
範	-10.3943
鶏	-10.3943
仏蘭西	-10.3943
艶	-10.3943
藁	-10.3943
臥	-10.3943
脈	-10.3943
奢	-10.3943
簡単な	-10.3943
閃	-10.3943
周旋	-10.3943
吉川夫人	-10.395
の裡に	-10.3951
騒ぎ	-10.3951
定めて	-10.3957
おやじ	-10.3961
行きたい	-10.3962
と思いながら	-10.3964
迎	-10.3971
吐く	-10.3973
立ち上った	-10.3973
彼の心	-10.3975
芸術家	-10.3991
立ちながら	-10.3991
姿が	-10.3993
間柄	-10.3996
受取った	-10.3996
微かな	-10.3998
を用い	-10.3998
もんか	-10.4001
月々	-10.4017
と云います	-10.4018
待っていた	-10.4021
薄く	-10.4033
四角な	-10.4034
外れ	-10.4043
知れない	-10.4062
立ち上	-10.4067
感心した	-10.4078
此間	-10.4083
くらいだ	-10.409
できなかった	-10.4092
御互	-10.4103
ある日	-10.4107
即	-10.4117
津	-10.412
衝	-10.412
まれた	-10.4121
些	-10.4122
といえども	-10.4122
焚	-10.4122
顎	-10.4122
懇	-10.4122
ちらちら	-10.4122
醒	-10.4122
詞	-10.4122
そろそろ	-10.4122
漂	-10.4122
好い加減に	-10.4122
修業	-10.4123
招待	-10.4124
をやめて	-10.413
なりません	-10.4131
と甲野さんは	-10.4133
自分の前に	-10.4137
白き	-10.4138
途切れ	-10.4142
団子	-10.4146
を取る	-10.4146
事ができない	-10.4147
度胸	-10.4148
だけど	-10.415
その男	-10.4159
そうとする	-10.4161
分らん	-10.4162
現実	-10.4171
今更	-10.4177
避	-10.4179
方がいい	-10.4193
勢力	-10.4194
抛げ	-10.4209
健三には	-10.4212
途中	-10.4224
ようと思って	-10.4224
の一部分	-10.4225
へ這入った	-10.4229
安心して	-10.4254
弁じ	-10.4258
双	-10.4272
の方を見た	-10.4281
展	-10.4302
福	-10.4302
幹	-10.4304
盤	-10.4304
雀	-10.4304
挿	-10.4304
羊	-10.4304
満洲	-10.4304
碁	-10.4304
叮嚀に	-10.4304
鞄	-10.4304
鎌倉	-10.4304
某	-10.4304
講釈	-10.4304
偉大な	-10.4305
電灯	-10.4305
仮定	-10.4306
戸棚	-10.4306
ちまった	-10.4307
べきもの	-10.4312
亡くな	-10.4315
づか	-10.4318
二枚	-10.4318
ああいう	-10.4319
▁夫人は	-10.432
はじめて	-10.4322
気狂	-10.4326
分け	-10.4329
始める	-10.4339
暖かい	-10.4341
最後	-10.4346
飲	-10.4352
堅い	-10.4353
聴いた	-10.4355
派出	-10.4358
潜り	-10.4367
あの男	-10.4369
万一	-10.4371
せられて	-10.4379
廻った	-10.4381
つもりです	-10.4383
上手	-10.4389
の二字	-10.4403
ものでない	-10.4407
君子	-10.4408
遅く	-10.4417
送り	-10.4422
凝と	-10.4425
そうですね	-10.4431
へ入れて	-10.4436
なんだか	-10.4439
流れて	-10.4443
敷いて	-10.4447
長い間	-10.4448
除	-10.4449
しておいて	-10.4451
この場合	-10.446
と云うのが	-10.4461
受合	-10.4468
怖い	-10.4469
いずれも	-10.447
信じていた	-10.4473
述べて	-10.4474
巻き	-10.4475
遮	-10.4477
浮き	-10.448
健	-10.4482
慢	-10.4485
舎	-10.4487
律	-10.4487
筒	-10.4488
技	-10.4488
畏	-10.4489
こしらえ	-10.4489
実業家	-10.4489
宮	-10.4489
湿	-10.4489
かも知れん	-10.4489
揉	-10.4489
祟	-10.4489
朋友	-10.4489
渋	-10.4489
蚊帳	-10.4489
狼	-10.4489
巡	-10.4489
延ばして	-10.4489
洋卓	-10.449
首肯	-10.449
繰り返す	-10.449
風邪	-10.449
子規	-10.4491
辛抱	-10.4491
はずである	-10.4492
将来	-10.4492
因縁	-10.4492
立派に	-10.4492
是非共	-10.4493
なくっちゃならない	-10.4495
心臓	-10.4497
御帰り	-10.4498
一分	-10.45
生意気	-10.4501
生きた	-10.4503
新らしく	-10.4503
を持つ	-10.4503
付かない	-10.4504
写生	-10.4507
鳴らし	-10.4507
風流	-10.4511
換えて	-10.4512
為め	-10.4516
使用	-10.4516
我慢して	-10.452
もあろう	-10.4533
言訳	-10.4534
かというと	-10.4534
荷物	-10.4538
すまして	-10.4539
に向った	-10.4561
ばかりではない	-10.4565
なぞ	-10.4569
御話し	-10.457
正直な	-10.4576
百年	-10.458
忘	-10.4583
藤尾さん	-10.4585
車屋	-10.4591
一筋	-10.4599
隙	-10.4603
応じ	-10.4619
降る	-10.4626
待た	-10.4634
あっち	-10.4638
収め	-10.4648
茶屋	-10.465
評した	-10.4652
喰い	-10.4661
乗せて	-10.4667
翻	-10.4671
管	-10.4676
解剖	-10.4677
やむを得ず	-10.4678
驚ろく	-10.4678
崎	-10.4678
イブセン	-10.4678
一生懸命に	-10.4678
來	-10.4678
思われます	-10.4678
積極的	-10.4678
縦	-10.4678
ランプ	-10.4678
欄干	-10.4678
源因	-10.4678
向側	-10.4678
大連	-10.4679
装飾	-10.4679
下手	-10.4679
衝突	-10.4679
四時	-10.4682
せざる	-10.4685
忘れてしまった	-10.4686
極端	-10.4687
短かい	-10.4688
無暗に	-10.469
遮ぎ	-10.469
発現	-10.4692
御免	-10.4692
歩き出した	-10.4692
帰ろう	-10.4694
発明	-10.4695
帳面	-10.4696
悪い事	-10.4698
声を出して	-10.4703
並べ	-10.4705
忘れていた	-10.4734
門前	-10.4735
宜い	-10.4741
ばかりでなく	-10.4743
大きな声で	-10.4744
堪	-10.4753
示す	-10.4778
心配する	-10.4797
複雑な	-10.48
主張する	-10.4805
津田君	-10.4808
一足	-10.4808
何事も	-10.4817
降って	-10.4818
惜	-10.4818
疑ぐ	-10.4822
だそうである	-10.4838
詫ま	-10.4846
妙だ	-10.4859
郷	-10.4863
やらない	-10.4866
賀	-10.4869
政	-10.4869
催	-10.487
癪	-10.487
拙	-10.487
伊	-10.487
預	-10.487
窺	-10.487
刑	-10.487
戒	-10.487
潔	-10.487
廂	-10.487
鍋	-10.487
骨が折れ	-10.487
雇	-10.487
喜いちゃん	-10.487
環	-10.487
容赦なく	-10.487
いやしくも	-10.487
拵らえ	-10.487
捨てて	-10.4871
印象	-10.4871
鉄砲	-10.4871
聞かせ	-10.4872
吹聴	-10.4872
自然派	-10.4873
対照	-10.4873
閑静	-10.4875
軽薄	-10.4875
体裁	-10.4876
飲ま	-10.4877
計画	-10.488
故意	-10.488
見識	-10.4881
統一	-10.4883
でもあり	-10.4885
と思いました	-10.4889
からいうと	-10.4905
隠す	-10.4907
二十年	-10.492
合点	-10.4926
あろう	-10.4941
化物	-10.4942
一段	-10.4952
会見	-10.4954
に限る	-10.4955
まったく	-10.4957
吸い	-10.4959
事があります	-10.496
承知して	-10.4968
光り	-10.4973
驚き	-10.4985
熱い	-10.4986
次の間	-10.499
着物を着	-10.4997
云つて	-10.5002
を忘れる	-10.5008
だろうと思った	-10.5014
必要がある	-10.502
あつて	-10.5022
出て来ない	-10.5024
切り上げ	-10.5025
今頃	-10.5026
分子	-10.5033
せられ	-10.5033
十日	-10.5037
覧	-10.5049
りゃしない	-10.5058
発見した	-10.5059
廻す	-10.506
頓着	-10.5062
逸	-10.5065
斜	-10.5066
備	-10.5066
噂	-10.5066
殊	-10.5066
蹴	-10.5066
殻	-10.5066
諾	-10.5066
呆	-10.5066
嘲	-10.5066
竪	-10.5066
しゅう	-10.5066
浅井君	-10.5066
▁しかるに	-10.5066
そこいら	-10.5066
俳句	-10.5067
藤井	-10.5067
広告	-10.5068
器量	-10.5068
始まった	-10.5068
野郎	-10.5069
屏風	-10.5069
画工	-10.5071
思案	-10.5071
皮肉	-10.5071
色彩	-10.5075
を含んで	-10.5081
硝子戸	-10.5085
烈しく	-10.509
書いてあった	-10.5091
伴れて	-10.5092
を得て	-10.5092
横町	-10.5093
建物	-10.5093
並んでいる	-10.51
まっ	-10.5103
を起した	-10.5109
記念	-10.5111
とか云って	-10.5112
結果として	-10.5119
どう云う	-10.5123
出さない	-10.5129
来ます	-10.5139
誰でも	-10.5147
方々	-10.5153
二時間	-10.5156
帰れ	-10.5164
それなり	-10.5167
そうもない	-10.517
こうやって	-10.5175
御金	-10.5181
怒る	-10.519
ようなものだ	-10.5191
ですもの	-10.5202
男女	-10.5205
投	-10.5206
ようなもので	-10.5208
か知らん	-10.521
打つ	-10.5215
這入り	-10.5231
浮世	-10.524
でもあった	-10.5245
んですね	-10.5246
広く	-10.5248
包んで	-10.5259
態	-10.5262
瓶	-10.5265
瓦	-10.5265
扇	-10.5266
丹	-10.5266
撰	-10.5266
捜	-10.5266
階子段	-10.5266
ちょいと	-10.5266
菜	-10.5266
零	-10.5266
凹	-10.5266
唱	-10.5266
麻	-10.5266
訓	-10.5266
肱	-10.5266
ゼ	-10.5266
佇	-10.5266
蓮	-10.5266
繁	-10.5266
御存じ	-10.5266
臘	-10.5266
いまだかつて	-10.5266
ひどい	-10.5266
を脱いで	-10.5266
緊張	-10.5266
洒落	-10.5266
お母さん	-10.5267
推察	-10.5267
緩くり	-10.5267
にきまっている	-10.5268
細く	-10.5268
患者	-10.5272
糸公	-10.5272
三十分	-10.5272
を通じて	-10.5273
教場	-10.5275
組み	-10.5282
と云われた	-10.5282
たいへん	-10.5283
生存	-10.5284
微かに	-10.5287
▁宗近君は	-10.5292
吐いた	-10.5292
夕方	-10.5294
ころ	-10.5297
見上げた	-10.5297
生ずる	-10.5301
出来ん	-10.5306
何人	-10.5307
こんなもの	-10.5315
擦り	-10.5324
あなたがた	-10.5333
知っていた	-10.5334
に限って	-10.534
っぱ	-10.5342
聴く	-10.5347
響く	-10.5349
詰めた	-10.5363
と同じような	-10.5363
思われる	-10.5371
をとって	-10.5371
ろうとする	-10.5376
んじゃないか	-10.5377
心細	-10.5389
決心した	-10.5398
結構な	-10.54
それとも	-10.5407
振って	-10.5415
改めて	-10.5426
煙り	-10.5427
気になって	-10.5433
のではなかろうか	-10.5434
御蔭	-10.5434
マン	-10.5435
悪るい	-10.5442
余計	-10.5446
僧	-10.5465
各	-10.5465
修	-10.5468
恥ずかし	-10.547
クララ	-10.547
腸	-10.547
庫	-10.547
準備	-10.547
明暸に	-10.547
久しぶりに	-10.547
紺	-10.547
気がつかなかった	-10.547
独乙	-10.5472
恐縮	-10.5472
到着	-10.5472
会釈	-10.5473
寧ろ	-10.5473
いつもの通り	-10.5474
シキ	-10.5474
回復	-10.5475
熊本	-10.5475
強情	-10.5478
自殺	-10.5478
腰をかけて	-10.5479
っけ	-10.5482
道義	-10.5482
住む	-10.5483
気楽な	-10.5484
にしたところで	-10.5484
御婆さん	-10.5485
参ります	-10.5494
近来	-10.5497
引張	-10.5498
汚ない	-10.5502
宵子	-10.5504
構わず	-10.5504
をながめ	-10.5512
野々宮	-10.5518
なんでも	-10.5519
寝ていた	-10.5521
右手	-10.5529
直接	-10.5531
笑っていた	-10.5536
してやろう	-10.5538
の態度は	-10.5546
の眼には	-10.5553
勧	-10.556
▁それでいて	-10.556
を作って	-10.5563
御前さん	-10.5568
見たまえ	-10.557
大体	-10.5581
坊さん	-10.5583
若い男	-10.5608
訳には行か	-10.5613
調べ	-10.5613
彼の前に	-10.5614
埋め	-10.5616
その間に	-10.5625
たくさんある	-10.5627
眼前に	-10.5627
離れた	-10.563
登り	-10.563
曲げ	-10.5634
文芸家	-10.5635
へ這入る	-10.5639
を聞か	-10.5646
医	-10.5653
忙	-10.5663
ものと見えて	-10.5664
遣り	-10.5672
熊	-10.5673
番頭	-10.5675
壇	-10.5676
煤	-10.5678
基	-10.5678
蒸	-10.5678
停留所	-10.5678
帝	-10.5678
編	-10.5678
咳	-10.5678
貼	-10.5678
少くとも	-10.5678
麺	-10.5678
露西亜	-10.5678
▁しかもその	-10.5679
詳しい	-10.5679
▁しばらくすると	-10.5679
提灯	-10.568
設け	-10.568
むろん	-10.5681
を通り越して	-10.5681
佐野	-10.5681
ありありと	-10.5681
洋灯	-10.5682
絶対	-10.5682
忙しい	-10.5683
朝鮮	-10.5683
を起して	-10.5684
翻訳	-10.5685
甚だ	-10.5685
自然主義	-10.5686
を起す	-10.5686
新橋	-10.5686
欲しい	-10.5691
判然しない	-10.5694
起らなかった	-10.5695
思えなかった	-10.5695
申し上げ	-10.5695
▁梅子は	-10.5697
提	-10.5698
控えている	-10.5699
夜具	-10.57
達者	-10.5705
照らして	-10.5706
じっとして	-10.5711
歩行	-10.5711
画家	-10.5715
二階へ	-10.5716
お時	-10.5724
せめて	-10.5725
を離れる	-10.5729
儲け	-10.5742
向う側	-10.5743
慰め	-10.575
極め	-10.576
太い	-10.5763
出しました	-10.5769
阿爺	-10.5772
鳴く	-10.5778
ですけれども	-10.5783
やって来た	-10.5791
ぢやないか	-10.5806
免	-10.581
動作	-10.5812
払った	-10.5815
けれど	-10.5816
床の間	-10.5819
書け	-10.583
要するに	-10.5834
替	-10.5839
漸	-10.5872
扱	-10.5879
土間	-10.5886
戯	-10.5888
卓	-10.5888
慮	-10.5888
章	-10.5889
明るく	-10.5889
江	-10.5889
翁	-10.589
捉	-10.589
遇	-10.589
唄	-10.5891
挨拶をする	-10.5891
寛	-10.5891
に乏しい	-10.5891
かもしれない	-10.5892
載せた	-10.5894
悪戯	-10.5894
ベル	-10.5895
その女	-10.5896
ゐなかつた	-10.5898
感服	-10.5899
確かめ	-10.5899
の態度が	-10.5902
優しい	-10.5904
時期	-10.5904
どうにか	-10.5905
漠然	-10.5912
を有している	-10.5913
筆を執	-10.5918
泣く	-10.5918
そうなものだ	-10.5921
わがまま	-10.5923
飛んだ	-10.593
せず	-10.5932
っちまった	-10.5933
聞きました	-10.5941
つかぬ	-10.5942
生命	-10.5944
塗り	-10.5949
切れない	-10.5952
送る	-10.5954
好んで	-10.5957
おらぬ	-10.5964
自分で自分の	-10.5967
茶の間へ	-10.5976
喜んで	-10.5985
つけられた	-10.5991
の存在を	-10.5993
行きます	-10.5996
結びつけ	-10.5999
許さ	-10.6015
んだそうだ	-10.6031
三尺	-10.6034
をかいて	-10.6048
云いました	-10.6068
役所	-10.6077
馴れ	-10.6087
杯	-10.6091
には違	-10.6101
族	-10.6102
悔	-10.6103
ペ	-10.6104
博	-10.6107
絞	-10.6108
ヒ	-10.6108
二十世紀	-10.6108
筈	-10.6108
眩	-10.6108
斬	-10.6108
藍	-10.6108
ひそかに	-10.6109
乳	-10.6109
皺	-10.6109
託	-10.6109
ぢやありませんか	-10.6109
脊	-10.6109
そっち	-10.6109
ビ	-10.6109
匂	-10.6109
嫉	-10.6109
肺	-10.6109
贈	-10.6109
なけりゃ	-10.6109
蠅	-10.6109
仁	-10.6109
ハイカラ	-10.6109
▁例えば	-10.6109
吠	-10.6109
中途で	-10.6109
江戸	-10.611
二十四	-10.6111
謎の女	-10.6113
連続	-10.6113
脱ぎ	-10.6115
紛	-10.6207
普	-10.6326
寧	-10.6327
頓	-10.6328
刃	-10.633
築	-10.633
蓄	-10.633
綱	-10.633
欄	-10.633
醜	-10.633
傑	-10.6331
獣	-10.6331
麦	-10.6331
畠	-10.6331
朱	-10.6331
呪	-10.6331
賃	-10.6331
拳	-10.6331
肴	-10.6331
巨	-10.6331
再	-10.6556
粗	-10.6557
那	-10.6557
呈	-10.6557
徴	-10.6558
併	-10.6558
智	-10.6558
嬢	-10.6558
霧	-10.6558
悠	-10.6558
漬	-10.6558
鞭	-10.6558
栗	-10.6558
祈	-10.6558
踊	-10.6558
慥	-10.6558
冥	-10.6558
陣	-10.6558
濡	-10.6611
勇	-10.6724
垂	-10.6755
斯	-10.6775
憐	-10.6786
履	-10.6788
芝	-10.6789
臆	-10.6789
薇	-10.6789
肯	-10.679
唯	-10.679
辱	-10.679
項	-10.679
庵	-10.6791
域	-10.6791
療	-10.6791
綴	-10.6791
粛	-10.6791
抔	-10.7028
頑	-10.7028
剛	-10.7029
没	-10.7029
樣	-10.7029
惹	-10.7029
槽	-10.7029
紗	-10.7029
垢	-10.7029
瞳	-10.7029
賢	-10.7029
詫	-10.7058
禿	-10.7149
陥	-10.7238
将	-10.7257
険	-10.7271
財	-10.7272
傚	-10.7272
競	-10.7272
臣	-10.7272
坪	-10.7272
繕	-10.7272
株	-10.7273
桐	-10.7273
徊	-10.7273
瞼	-10.7273
瀬	-10.7273
粋	-10.7273
靡	-10.7273
糺	-10.7273
馴	-10.7297
統	-10.7505
裡	-10.7511
秘	-10.7521
葬	-10.7522
ホ	-10.7522
周	-10.7522
蘇	-10.7522
唸	-10.7523
苔	-10.7523
慶	-10.7523
賊	-10.7523
w	-10.7523
滞	-10.7523
笹	-10.7523
踵	-10.7523
刷	-10.7523
鬼	-10.7523
監	-10.7523
跡	-10.7523
犯	-10.7523
創	-10.7554
乞	-10.7777
験	-10.7777
操	-10.7777
塩	-10.7778
脛	-10.7779
請	-10.7779
帆	-10.7779
県	-10.7779
架	-10.7779
粧	-10.7779
霞	-10.7779
堤	-10.7779
軸	-10.7779
櫛	-10.7779
顋	-10.7779
膏	-10.7779
槌	-10.7779
衰	-10.7779
ヘ	-10.7779
導	-10.7779
阿	-10.7912
婦	-10.7937
―	-10.8042
誂	-10.8042
陸	-10.8042
摩	-10.8042
笠	-10.8042
俵	-10.8042
謹	-10.8042
慎	-10.8042
餌	-10.8042
恭	-10.8042
稀	-10.8042
液	-10.8042
凡	-10.8284
盲	-10.8288
ギ	-10.8312
叙	-10.8312
癇	-10.8312
憤	-10.8312
享	-10.8312
幻	-10.8312
党	-10.8312
酌	-10.8312
學	-10.8312
補	-10.8312
凌	-10.8312
鋏	-10.8312
擲	-10.8312
街	-10.8312
髷	-10.8312
訴	-10.8508
亦	-10.8586
旋	-10.8589
麗	-10.8589
沿	-10.8589
埒	-10.859
迂	-10.859
勿	-10.859
咎	-10.859
箇	-10.859
蛮	-10.859
弓	-10.859
蝉	-10.859
騙	-10.859
飄	-10.859
釜	-10.859
抽	-10.8678
茫	-10.8718
窟	-10.8873
撲	-10.8874
忠	-10.8875
蒲	-10.8875
啓	-10.8876
侮	-10.8876
萌	-10.8876
祭	-10.8876
募	-10.8876
停	-10.8876
偸	-10.8876
缶	-10.8876
欝	-10.8876
泡	-10.8876
禁	-10.8876
騎	-10.8876
漠	-10.9141
測	-10.9167
設	-10.9167
揮	-10.9168
敗	-10.9169
闘	-10.9169
捩	-10.917
竦	-10.917
雁	-10.917
氣	-10.917
粟	-10.917
讀	-10.917
軌	-10.917
b	-10.917
托	-10.917
硯	-10.917
僻	-10.917
尖	-10.917
狐	-10.917
誓	-10.917
磯	-10.917
煎	-10.917
獄	-10.917
已	-10.9391
規	-10.9469
資	-10.947
雷	-10.9471
羨	-10.9472
縛	-10.9472
査	-10.9472
爛	-10.9473
拠	-10.9473
侍	-10.9473
蔓	-10.9473
圏	-10.9473
疋	-10.9473
貝	-10.9473
疳	-10.9473
陳	-10.9785
悶	-10.9785
拘	-10.9785
掃	-10.9785
篤	-10.9785
災	-10.9785
糞	-10.9785
飼	-10.9785
網	-10.9786
葛	-10.9786
采	-10.9786
斗	-10.9786
椀	-10.9786
貪	-10.9786
箒	-10.9786
暁	-10.9786
翌	-11.0095
伯	-11.0096
拍	-11.0103
係	-11.0107
乎	-11.0108
捻	-11.0108
′	-11.0108
励	-11.0108
櫓	-11.0108
椿	-11.0108
絣	-11.0108
B	-11.0108
焔	-11.0108
鰹	-11.0108
糊	-11.0108
撮	-11.0108
棟	-11.0108
償	-11.0108
斃	-11.0108
穂	-11.0108
慨	-11.0108
罰	-11.0108
披	-11.0108
漆	-11.0108
飽	-11.0349
釈	-11.0435
酷	-11.0439
俳	-11.044
諦	-11.044
歓	-11.044
漲	-11.0441
幼	-11.0441
竿	-11.0441
帖	-11.0441
携	-11.0441
粒	-11.0441
駒	-11.0441
貯	-11.0441
還	-11.0441
釘	-11.0441
亜	-11.0441
栽	-11.0442
翼	-11.0442
袷	-11.0442
燻	-11.0442
斑	-11.0442
爵	-11.0442
房	-11.0778
但	-11.0784
渉	-11.0785
値	-11.0786
征	-11.0786
僅	-11.0786
攻	-11.0786
蚊	-11.0786
卵	-11.0786
惨	-11.0786
棺	-11.0786
燐	-11.0786
桃	-11.0786
凸	-11.0786
睫	-11.0786
吃	-11.0786
杓	-11.0786
噴	-11.0786
妄	-11.0786
脂	-11.0786
叡	-11.0786
季	-11.0786
蛸	-11.0786
溯	-11.0786
恵	-11.0786
介	-11.0787
径	-11.1131
融	-11.1139
潤	-11.1142
採	-11.1143
髄	-11.1143
皇	-11.1143
酸	-11.1143
甥	-11.1143
拒	-11.1143
蘭	-11.1143
痩	-11.1143
丘	-11.1143
耽	-11.1143
躯	-11.1144
鉱	-11.1144
辿	-11.1144
到	-11.1509
邪	-11.1511
稿	-11.1512
銘	-11.1513
完	-11.1513
史	-11.1514
鴨	-11.1514
慈	-11.1514
幌	-11.1514
蕩	-11.1514
萩	-11.1514
税	-11.1514
鯉	-11.1514
痒	-11.1514
兎	-11.1514
蟻	-11.1514
,	-11.1514
施	-11.1514
籃	-11.1514
企	-11.1514
秒	-11.1514
鶉	-11.1514
仄	-11.1514
舐	-11.1514
且	-11.1516
顫	-11.1607
昨	-11.1877
鹿	-11.1896
婚	-11.1897
鑑	-11.1897
曾	-11.1897
薪	-11.1898
診	-11.1898
旦	-11.1898
僚	-11.1898
槍	-11.1898
炬	-11.1898
懲	-11.1898
駈	-11.1898
究	-11.1898
鳶	-11.1898
葢	-11.1898
藩	-11.1898
茸	-11.1898
銃	-11.1898
鱗	-11.1898
啜	-11.1898
叉	-11.1898
捏	-11.1898
枠	-11.1899
脇	-11.1899
艇	-11.1899
亀	-11.1899
桟	-11.1899
求	-11.1913
ゞ	-11.2269
偶	-11.2296
朽	-11.2298
協	-11.2298
愈	-11.2298
悄	-11.2298
巌	-11.2298
嚇	-11.2298
囃	-11.2298
契	-11.2298
渇	-11.2298
牌	-11.2298
浄	-11.2298
茎	-11.2298
董	-11.2298
匙	-11.2298
臍	-11.2298
喩	-11.2298
蜜	-11.2298
靄	-11.2298
逐	-11.2298
妓	-11.2298
截	-11.2298
昇	-11.2298
牙	-11.2298
腋	-11.2299
祐	-11.2299
按	-11.2299
貨	-11.2299
率	-11.2299
ぢ	-11.2701
秀	-11.2702
劃	-11.2714
乃	-11.2714
繊	-11.2715
宙	-11.2715
倦	-11.2715
炉	-11.2715
貢	-11.2715
辻	-11.2715
饒	-11.2715
掩	-11.2715
畜	-11.2715
濠	-11.2715
肘	-11.2715
巣	-11.2715
港	-11.2715
喝	-11.2715
燕	-11.2715
偏	-11.2715
囚	-11.2715
狩	-11.2715
蔦	-11.2715
繞	-11.2715
馳	-11.305
嵐	-11.3145
索	-11.3148
聯	-11.3149
泉	-11.3149
戴	-11.3149
鞍	-11.315
牽	-11.315
貞	-11.315
牡	-11.315
俺	-11.315
竟	-11.315
魯	-11.315
摘	-11.315
梢	-11.315
蒔	-11.315
毬	-11.315
閣	-11.315
隈	-11.315
屁	-11.315
櫃	-11.315
鳩	-11.315
k	-11.315
樽	-11.315
挫	-11.315
遜	-11.315
攪	-11.315
錦	-11.315
鑿	-11.315
狗	-11.315
燃	-11.3293
賑	-11.3529
況	-11.3601
賛	-11.3602
柵	-11.3602
聳	-11.3603
寡	-11.3604
症	-11.3604
2	-11.3604
婿	-11.3604
隆	-11.3604
均	-11.3604
媒	-11.3604
檜	-11.3604
鉾	-11.3604
把	-11.3604
鴉	-11.3604
狡	-11.3604
壕	-11.3604
惰	-11.3604
嵌	-11.3604
羹	-11.3604
録	-11.3604
.	-11.3604
ユ	-11.3604
賜	-11.3604
檀	-11.3604
顛	-11.3604
沓	-11.3605
臓	-11.4058
授	-11.4079
哲	-11.4079
府	-11.408
T	-11.408
巴	-11.408
系	-11.408
蛙	-11.408
猪	-11.4081
絨	-11.4081
績	-11.4081
厘	-11.4081
庇	-11.4081
耐	-11.4081
謙	-11.4081
愁	-11.4081
掟	-11.4081
耶	-11.4081
蟠	-11.4081
錠	-11.4081
韻	-11.4081
飴	-11.4081
廿	-11.4081
頻	-11.4081
匠	-11.4081
峰	-11.4081
蝶	-11.4081
磁	-11.4081
鉛	-11.414
蹄	-11.4578
須	-11.458
宇	-11.458
虞	-11.458
伽	-11.458
迫	-11.458
賦	-11.4581
粥	-11.4581
倅	-11.4581
洞	-11.4581
贋	-11.4581
叮	-11.4581
顕	-11.4581
鶯	-11.4581
騰	-11.4581
ゲ	-11.4581
沸	-11.4581
鯛	-11.4581
憫	-11.4581
竈	-11.4581
梨	-11.4581
炊	-11.4581
署	-11.4581
鶴	-11.4581
赦	-11.4581
俸	-11.4581
券	-11.4581
鬢	-11.4581
寫	-11.4581
唾	-11.4581
撫	-11.505
棄	-11.5082
悉	-11.5087
呂	-11.5104
腑	-11.5106
嘯	-11.5107
覆	-11.5107
赴	-11.5107
絆	-11.5107
倹	-11.5107
邦	-11.5107
嘴	-11.5107
擂	-11.5107
昏	-11.5107
陋	-11.5107
聟	-11.5107
肋	-11.5107
詮	-11.5107
甕	-11.5107
悦	-11.5107
俎	-11.5107
剤	-11.5107
斧	-11.5107
曹	-11.5107
燦	-11.5107
詐	-11.5107
會	-11.5107
袍	-11.5107
宴	-11.5107
儲	-11.5491
爺	-11.5595
甚	-11.5644
誉	-11.5656
廓	-11.5662
典	-11.5662
嚢	-11.5662
鎌	-11.5662
昂	-11.5662
衛	-11.5662
牧	-11.5662
岐	-11.5662
腫	-11.5662
累	-11.5662
尼	-11.5662
ヨ	-11.5662
吝	-11.5662
鰻	-11.5662
峙	-11.5662
抹	-11.5662
漁	-11.5662
痴	-11.5662
芽	-11.5662
賓	-11.5662
鋳	-11.5662
胎	-11.5663
淵	-11.5663
汝	-11.5663
絃	-11.5663
禄	-11.5663
歇	-11.5663
符	-11.6248
玄	-11.625
膜	-11.625
徐	-11.625
誦	-11.6251
毀	-11.6251
俄	-11.6251
咏	-11.6251
湛	-11.6251
喘	-11.6251
扶	-11.6251
楼	-11.6251
翫	-11.6251
鵞	-11.6251
渓	-11.6251
焙	-11.6251
鋒	-11.6251
諷	-11.6251
爆	-11.6251
拗	-11.6251
侵	-11.6251
謀	-11.6251
賽	-11.6251
箆	-11.6251
賤	-11.6251
援	-11.6251
腥	-11.6251
鞘	-11.6251
獅	-11.6251
醸	-11.6251
ザ	-11.6251
襞	-11.6251
駅	-11.6251
浚	-11.6251
嘔	-11.6251
羞	-11.6251
珊	-11.6251
必	-11.6868
亭	-11.6873
奔	-11.6875
材	-11.6875
鷹	-11.6875
佳	-11.6875
箔	-11.6875
呵	-11.6875
襷	-11.6875
錬	-11.6876
燭	-11.6876
鍔	-11.6876
櫂	-11.6876
屠	-11.6876
爽	-11.6876
藻	-11.6876
湾	-11.6876
齎	-11.6876
ヌ	-11.6876
ヵ	-11.6876
仔	-11.6876
猟	-11.6876
億	-11.6876
碧	-11.6876
睦	-11.6876
迅	-11.6876
栓	-11.6876
溺	-11.6876
濫	-11.6876
溢	-11.6876
簇	-11.6876
嵩	-11.6876
嘉	-11.6877
忽	-11.7109
跳	-11.7527
而	-11.754
聊	-11.7541
糖	-11.7542
掬	-11.7542
1	-11.7542
譜	-11.7542
鎧	-11.7542
筍	-11.7542
挺	-11.7542
塾	-11.7542
緋	-11.7542
搏	-11.7542
譚	-11.7542
蟹	-11.7542
闊	-11.7542
冶	-11.7542
楷	-11.7542
趨	-11.7542
浦	-11.7542
函	-11.7542
雛	-11.7542
點	-11.7542
侶	-11.7542
尿	-11.7542
耀	-11.7542
莨	-11.7542
區	-11.7542
唖	-11.7542
蜂	-11.7542
濛	-11.7542
鍵	-11.7542
庸	-11.7542
唆	-11.7543
捌	-11.7543
榴	-11.7543
圃	-11.7543
捷	-11.7543
斎	-11.8253
妖	-11.8254
餐	-11.8255
稲	-11.8255
ヂ	-11.8255
擬	-11.8256
峠	-11.8256
弧	-11.8256
研	-11.8256
枡	-11.8257
尉	-11.8257
赭	-11.8257
稚	-11.8257
湖	-11.8257
x	-11.8257
撚	-11.8257
踴	-11.8257
薫	-11.8257
夷	-11.8257
諧	-11.8257
姑	-11.8257
籐	-11.8257
媚	-11.8257
漾	-11.8257
瘤	-11.8257
既	-11.8866
齢	-11.9021
裕	-11.9023
緊	-11.9025
貌	-11.9025
升	-11.9026
桂	-11.9026
漏	-11.9026
農	-11.9026
袢	-11.9026
駿	-11.9026
劈	-11.9026
艘	-11.9026
瘡	-11.9026
綯	-11.9026
蠢	-11.9026
噺	-11.9026
絽	-11.9026
兜	-11.9026
輿	-11.9026
穢	-11.9026
葵	-11.9026
豁	-11.9026
麓	-11.9026
矯	-11.9026
篏	-11.9026
萎	-11.9026
鎮	-11.9026
畑	-11.9026
賭	-11.9026
跋	-11.9026
獲	-11.9026
樫	-11.9026
沖	-11.9026
遑	-11.9026
鮭	-11.9026
碑	-11.9026
挽	-11.9026
璃	-11.9026
註	-11.9027
芳	-11.9027
殖	-11.9384
患	-11.9835
尋	-11.9837
肖	-11.9855
也	-11.9856
恰	-11.9857
螺	-11.9857
瀾	-11.9858
縷	-11.9859
梁	-11.9859
恃	-11.9859
縹	-11.9859
滝	-11.9859
孫	-11.9859
愕	-11.9859
窖	-11.9859
瑣	-11.9859
轟	-11.9859
盟	-11.9859
彦	-11.9859
拓	-11.9859
舷	-11.9859
輸	-11.9859
副	-11.9859
熾	-11.9859
縺	-11.9859
菫	-11.9859
慄	-11.9859
童	-11.9859
錐	-11.9859
爾	-11.9859
鉦	-11.9859
鴻	-11.9859
謬	-11.9859
屍	-11.9859
蚤	-11.9859
暦	-11.9859
綾	-11.986
魄	-11.986
拵	-12.0586
屏	-12.0753
祥	-12.0767
濤	-12.0767
喞	-12.0768
噸	-12.0768
呻	-12.0768
苗	-12.0768
丙	-12.0768
滋	-12.0768
廉	-12.0768
艦	-12.0768
驕	-12.0768
坤	-12.0768
冀	-12.0768
躁	-12.0768
變	-12.0768
桁	-12.0768
赫	-12.0768
款	-12.0768
堆	-12.0768
寓	-12.0768
憑	-12.0768
遙	-12.0768
陀	-12.0768
厠	-12.0768
遼	-12.0768
靨	-12.0768
婢	-12.0768
紬	-12.0768
軋	-12.0768
稍	-12.0768
駁	-12.0768
蕭	-12.0768
O	-12.0768
跛	-12.0768
怨	-12.0768
梭	-12.0768
舳	-12.0768
漣	-12.0769
討	-12.0769
撒	-12.0769
喪	-12.0769
呉	-12.1209
褒	-12.1278
拈	-12.1762
洒	-12.1766
吏	-12.1768
虜	-12.1768
隻	-12.1768
恣	-12.1768
舶	-12.1768
擒	-12.1768
咄	-12.1768
姫	-12.1768
蚕	-12.1768
軟	-12.1768
涎	-12.1768
翠	-12.1768
芥	-12.1768
蜀	-12.1768
庁	-12.1768
〆	-12.1768
誅	-12.1768
鬱	-12.1768
鷺	-12.1768
鋼	-12.1768
餘	-12.1768
鷲	-12.1768
辣	-12.1768
鱈	-12.1768
M	-12.1768
剪	-12.1768
嬲	-12.1768
]	-12.1768
忰	-12.1768
轢	-12.1768
罫	-12.1768
脅	-12.1768
莫	-12.1768
錆	-12.1768
朴	-12.1768
杳	-12.1768
簿	-12.1768
臼	-12.1768
粘	-12.1768
吊	-12.1768
腮	-12.1768
侯	-12.1768
岨	-12.1768
梗	-12.1768
恕	-12.177
慣	-12.2099
毫	-12.2777
菓	-12.2863
遷	-12.2874
驀	-12.2878
準	-12.2878
豈	-12.2879
-	-12.2879
債	-12.2879
郡	-12.2879
綺	-12.2879
杜	-12.2879
茨	-12.2879
賄	-12.2879
糠	-12.2879
撓	-12.2879
C	-12.2879
縋	-12.2879
叢	-12.2879
魅	-12.2879
嶮	-12.2879
惣	-12.2879
葱	-12.2879
韓	-12.2879
騾	-12.2879
噫	-12.2879
妊	-12.2879
鯨	-12.2879
倣	-12.2879
仆	-12.2879
曠	-12.2879
'	-12.2879
棹	-12.2879
笊	-12.2879
蜿	-12.2879
蠣	-12.2879
體	-12.2879
昌	-12.2879
蘆	-12.2879
訝	-12.2879
ゾ	-12.2879
鬣	-12.2879
S	-12.2879
攀	-12.288
欅	-12.288
鄙	-12.288
鋲	-12.288
娶	-12.288
埓	-12.288
恒	-12.288
眞	-12.288
瞞	-12.288
罎	-12.288
棕	-12.288
哉	-12.288
辰	-12.288
疚	-12.288
蟇	-12.4107
盥	-12.4125
李	-12.4125
複	-12.4128
嗤	-12.4128
幟	-12.4128
勉	-12.4129
峡	-12.4129
楊	-12.4129
α	-12.4129
遶	-12.4129
瘋	-12.4129
譯	-12.4129
鵜	-12.4129
捺	-12.4129
炳	-12.4129
杭	-12.4129
薯	-12.4129
=	-12.4129
囀	-12.4129
對	-12.4129
爲	-12.4129
舗	-12.4129
薩	-12.4129
癌	-12.4129
實	-12.4129
楯	-12.4129
蹂	-12.4129
〇	-12.4129
濶	-12.4129
楓	-12.4129
濘	-12.4129
柏	-12.4129
耄	-12.4129
芹	-12.4129
虹	-12.4129
檻	-12.4129
鮎	-12.4129
澱	-12.4129
G	-12.4129
臀	-12.4129
I	-12.4129
姪	-12.4129
梃	-12.4129
歪	-12.4129
D	-12.4129
捗	-12.4129
雌	-12.4129
澹	-12.413
痞	-12.413
喙	-12.413
嚏	-12.413
仇	-12.413
菩	-12.413
擁	-12.413
祷	-12.413
緯	-12.413
凶	-12.413
凋	-12.413
妃	-12.413
蕪	-12.413
憲	-12.413
奸	-12.413
愧	-12.4133
冴	-12.5105
詳	-12.555
讐	-12.5557
慚	-12.5558
桑	-12.5558
鮪	-12.5558
飢	-12.5558
鍬	-12.5558
楚	-12.5558
焉	-12.5558
洪	-12.5558
撞	-12.5558
糧	-12.5558
厨	-12.5558
瞑	-12.5558
嘶	-12.5558
發	-12.5558
砥	-12.5558
欧	-12.5558
婉	-12.5558
蓑	-12.5558
刳	-12.5558
貶	-12.5558
撼	-12.5558
堰	-12.5558
峻	-12.5558
剰	-12.5558
躙	-12.5558
E	-12.5558
鋸	-12.5558
*	-12.5558
寥	-12.5558
侠	-12.5558
岳	-12.5558
綸	-12.5558
迚	-12.5558
遐	-12.5558
哩	-12.5558
ヲ	-12.5558
彎	-12.5558
摯	-12.5558
樂	-12.5558
滲	-12.5558
蕊	-12.5558
渝	-12.5558
菱	-12.5558
螫	-12.5558
轡	-12.5558
箕	-12.5558
〔	-12.5558
凍	-12.5558
蕾	-12.5558
堺	-12.5558
處	-12.5558
航	-12.5558
傳	-12.5558
樺	-12.5558
〕	-12.5558
拉	-12.5558
傲	-12.5558
輛	-12.5559
謂	-12.7196
套	-12.722
惟	-12.7221
宰	-12.7222
嬌	-12.7223
溌	-12.7223
喋	-12.7224
懶	-12.7224
朋	-12.7224
勃	-12.7224
ヰ	-12.7224
覊	-12.7224
憩	-12.7224
桓	-12.7224
芒	-12.7224
裄	-12.7224
邁	-12.7224
侘	-12.7224
萱	-12.7224
搾	-12.7224
烙	-12.7225
粕	-12.7225
慵	-12.7225
鉤	-12.7225
樋	-12.7225
濺	-12.7225
P	-12.7225
晒	-12.7225
樟	-12.7225
濟	-12.7225
痘	-12.7225
緬	-12.7225
牀	-12.7225
當	-12.7225
篝	-12.7225
訛	-12.7225
弔	-12.7225
畸	-12.7225
宥	-12.7225
巫	-12.7225
栞	-12.7225
窪	-12.7225
麩	-12.7225
咀	-12.7225
囁	-12.7225
瓣	-12.7225
諒	-12.7225
勅	-12.7225
咽	-12.7225
梳	-12.7225
棲	-12.7225
窃	-12.7225
肚	-12.7225
詛	-12.7225
吼	-12.7225
嘸	-12.7225
N	-12.7225
簪	-12.7225
穀	-12.7225
鮨	-12.7225
涸	-12.7225
魁	-12.7225
裹	-12.7225
斉	-12.7225
苟	-12.7226
禍	-12.9214
啻	-12.9219
X	-12.9222
怯	-12.9224
癡	-12.9224
覺	-12.9224
氛	-12.9224
壱	-12.9224
麾	-12.9224
灸	-12.9224
昵	-12.9225
單	-12.9225
覇	-12.9225
讃	-12.9225
鮒	-12.9225
鼈	-12.9225
煖	-12.9225
茅	-12.9225
駕	-12.9225
卯	-12.9225
啼	-12.9225
戞	-12.9225
鏘	-12.9225
渚	-12.9225
舍	-12.9225
蕗	-12.9225
黴	-12.9225
惧	-12.9225
疵	-12.9225
筑	-12.9225
繙	-12.9225
嚼	-12.9225
宕	-12.9225
鈕	-12.9225
3	-12.9225
乍	-12.9225
屡	-12.9225
鵯	-12.9225
蓊	-12.9225
鐙	-12.9225
鱧	-12.9225
儼	-12.9225
墜	-12.9225
摂	-12.9225
甍	-12.9225
譬	-12.9225
閻	-12.9225
霰	-12.9225
餉	-12.9225
膿	-12.9225
誕	-12.9225
惡	-12.9225
灌	-12.9225
狎	-12.9225
聾	-12.9225
嚊	-12.9225
摸	-12.9225
贏	-12.9225
鰯	-12.9225
俊	-12.9225
欣	-12.9225
顆	-12.9225
鴎	-12.9225
畝	-12.9225
冲	-12.9225
掏	-12.9225
搬	-12.9225
漉	-12.9225
蛍	-12.9225
陵	-12.9225
杢	-12.9225
甃	-12.9225
瑟	-12.9225
譫	-12.9225
廟	-12.9225
慳	-12.9225
柩	-12.9225
榎	-12.9225
磅	-12.9225
繪	-12.9225
糾	-12.9232
尤	-13.1648
般	-13.1706
瞭	-13.1722
誌	-13.1723
膚	-13.1724
廣	-13.1724
郵	-13.1724
厄	-13.1724
框	-13.1724
7	-13.1724
嵯	-13.1724
淫	-13.1724
耻	-13.1724
悖	-13.1724
訥	-13.1724
酢	-13.1724
剌	-13.1725
橙	-13.1725
朔	-13.1725
梟	-13.1725
峯	-13.1725
篆	-13.1725
蹠	-13.1725
Y	-13.1725
攣	-13.1725
醇	-13.1725
4	-13.1725
疼	-13.1725
^	-13.1725
”	-13.1725
嬾	-13.1725
扁	-13.1725
摶	-13.1725
膈	-13.1725
:	-13.1725
燗	-13.1725
“	-13.1725
卿	-13.1725
斷	-13.1725
旬	-13.1725
穹	-13.1725
筵	-13.1725
艫	-13.1725
姥	-13.1725
祇	-13.1725
邃	-13.1725
佯	-13.1725
條	-13.1725
跏	-13.1725
蓼	-13.1725
寅	-13.1725
弘	-13.1725
縒	-13.1725
醋	-13.1725
柑	-13.1725
窕	-13.1725
践	-13.1725
崗	-13.1725
畫	-13.1725
拔	-13.1725
桔	-13.1725
犇	-13.1725
燬	-13.1725
厩	-13.1725
渺	-13.1725
敍	-13.1725
旁	-13.1725
賚	-13.1726
洲	-13.5057
冗	-13.5057
慧	-13.5058
杏	-13.5058
晦	-13.5058
梯	-14.0038
倫	-14.0055
幣	-14.0056
紳	-14.0057
喉	-14.0057
蝋	-14.0057
矛	-14.0057
康	-14.0058
煉	-14.0058
倶	-14.0058
輓	-14.9507
蹣	-14.9508
踰	-14.9509
跚	-14.951
誨	-14.9511
裔	-14.9512
膠	-14.9513
腔	-14.9514
聘	-14.9515
翩	-14.9516
羲	-14.9517
簟	-14.9518
篩	-14.9519
租	-14.952
禦	-14.9521
痰	-14.9522
甜	-14.9523
瑪	-14.9524
瑙	-14.9525
狙	-14.9526
潟	-14.9527
滾	-14.9528
湍	-14.9529
涵	-14.953
欖	-14.9531
檗	-14.9532
橄	-14.9533
柾	-14.9534
枳	-14.9535
旺	-14.9536
斡	-14.9537
斛	-14.9538
拷	-14.9539
憺	-14.954
怺	-14.9541
忖	-14.9542
庖	-14.9543
巷	-14.9544
嗄	-14.9545
卦	-14.9546
匿	-14.9547
匆	-14.9548
兢	-14.9549
兇	-14.955
Q	-14.9551
鼬	-14.9552
鸞	-14.9553
餞	-14.9554
隲	-14.9555
阻	-14.9556
關	-14.9557
鏤	-14.9558
錫	-14.9559
銷	-14.956
醗	-14.9561
酵	-14.9562
酪	-14.9563
賠	-14.9564
豌	-14.9565
誼	-14.9566
詭	-14.9567
褞	-14.9568
蟆	-14.9569
蝸	-14.957
蒐	-14.9571
繹	-14.9572
睛	-14.9573
眇	-14.9574
畔	-14.9575
牆	-14.9576
炙	-14.9577
瀝	-14.9578
漓	-14.9579
淘	-14.958
淆	-14.9581
枉	-14.9582
擽	-14.9583
撻	-14.9584
揶	-14.9585
揄	-14.9586
捐	-14.9587
拇	-14.9588
抒	-14.9589
扼	-14.959
憬	-14.9591
憧	-14.9592
并	-14.9593
巓	-14.9594
墻	-14.9595
囈	-14.9596
參	-14.9597
價	-14.9598
傭	-14.9599
俐	-14.96
麹	-14.9601
鮑	-14.9602
闥	-14.9603
趙	-14.9604
詈	-14.9605
菖	-14.9606
肢	-14.9607
筮	-14.9608
穽	-14.9609
睥	-14.961
盪	-14.9611
疝	-14.9612
疇	-14.9613
澤	-14.9614
梠	-14.9615
慷	-14.9616
惘	-14.9617
怙	-14.9618
徽	-14.9619
庚	-14.962
帷	-14.9621
帙	-14.9622
屎	-14.9623
尠	-14.9624
妁	-14.9625
埠	-14.9626
嚥	-14.9627
伜	-14.9628
伍	-14.9629
需	-14.963
躑	-14.9631
躅	-14.9632
蹌	-14.9633
踉	-14.9634
購	-14.9635
褄	-14.9636
蝕	-14.9637
窈	-14.9638
磬	-14.9639
猜	-14.964
渠	-14.9641
氈	-14.9642
毘	-14.9643
殉	-14.9644
曙	-14.9645
晰	-14.9646
斤	-14.9647
擅	-14.9648
拜	-14.9649
憊	-14.965
恬	-14.9651
彰	-14.9652
彗	-14.9653
填	-14.9654
塁	-14.9655
嗇	-14.9656
刎	-14.9657
隧	-14.9658
謳	-14.9659
該	-14.966
褐	-14.9661
蜒	-14.9662
薦	-14.9663
葭	-14.9664
腎	-14.9665
瞹	-14.9666
眛	-14.9667
瑞	-14.9668
琲	-14.9669
珈	-14.967
熨	-14.9671
循	-14.9672
崋	-14.9673
奕	-14.9674
壜	-14.9675
培	-14.9676
哈	-14.9677
吶	-14.9678
克	-14.9679
兀	-14.968
儒	-14.9681
僥	-14.9682
偲	-14.9683
倖	-14.9684
鸚	-14.9685
鵡	-14.9686
陛	-14.9687
謔	-14.9688
褌	-14.9689
肆	-14.969
聚	-14.9691
罩	-14.9692
窶	-14.9693
磐	-14.9694
痢	-14.9695
疱	-14.9696
甸	-14.9697
琶	-14.9698
琵	-14.9699
浣	-14.97
梵	-14.9701
掉	-14.9702
懊	-14.9703
徠	-14.9704
徂	-14.9705
嘗	-14.9706
卜	-14.9707
凭	-14.9708
鼾	-14.9709
麿	-14.971
隷	-14.9711
鑼	-14.9712
迦	-14.9713
豹	-14.9714
胞	-14.9715
聡	-14.9716
罷	-14.9717
窒	-14.9718
礎	-14.9719
璋	-14.972
瑠	-14.9721
瀑	-14.9722
沁	-14.9723
毯	-14.9724
徨	-14.9725
彷	-14.9726
剽	-14.9727
齷	-14.9728
齪	-14.9729
邂	-14.973
逅	-14.9731
跣	-14.9732
赧	-14.9733
諭	-14.9734
虐	-14.9735
菅	-14.9736
脆	-14.9737
緲	-14.9738
緞	-14.9739
稼	-14.974
斟	-14.9741
擱	-14.9742
幡	-14.9743
喇	-14.9744
叭	-14.9745
亘	-14.9746
駱	-14.9747
簀	-14.9748
瘍	-14.9749
抓	-14.975
憮	-14.9751
悸	-14.9752
悧	-14.9753
怜	-14.9754
奈	-14.9755
塹	-14.9756
喚	-14.9757
W	-14.9758
顰	-14.9759
閲	-14.976
裳	-14.9761
蒻	-14.9762
蒟	-14.9763
脹	-14.9764
翰	-14.9765
綻	-14.9766
秤	-14.9767
淑	-14.9768
尨	-14.9769
夥	-14.977
刊	-14.9771
鬨	-14.9772
蝦	-14.9773
繍	-14.9774
粱	-14.9775
痺	-14.9776
滔	-14.9777
核	-14.9778
柢	-14.9779
柘	-14.978
懃	-14.9781
慇	-14.9782
屓	-14.9783
倆	-14.9784
伐	-14.9785
駝	-14.9786
逍	-14.9787
衒	-14.9788
淀	-14.9789
棠	-14.979
擡	-14.9791
搗	-14.9792
恍	-14.9793
嶺	-14.9794
妥	-14.9795
喊	-14.9796
伎	-14.9797
銜	-14.9798
郊	-14.9799
蟷	-14.98
螂	-14.9801
緻	-14.9802
籤	-14.9803
癲	-14.9804
瑚	-14.9805
楠	-14.9806
柴	-14.9807
朶	-14.9808
撤	-14.9809
懺	-14.981
嬪	-14.9811
凱	-14.9812
釦	-14.9813
輯	-14.9814
衡	-14.9815
茲	-14.9816
燥	-14.9817
棋	-14.9818
暢	-14.9819
弛	-14.982
ゑ	-14.9821
雫	-14.9822
遭	-14.9823
逝	-14.9824
褪	-14.9825
琥	-14.9826
珀	-14.9827
梶	-14.9828
掴	-14.9829
挑	-14.983
拱	-14.9831
徘	-14.9832
孟	-14.9833
詣	-14.9834
訂	-14.9835
耗	-14.9836
窘	-14.9837
猾	-14.9838
晶	-14.9839
撥	-14.984
靠	-14.9841
茄	-14.9842
榜	-14.9843
曳	-14.9844
暫	-14.9845
掲	-14.9846
戚	-14.9847
奨	-14.9848
央	-14.9849
勾	-14.985
諺	-14.9851
蕉	-14.9852
芭	-14.9853
瓢	-14.9854
摧	-14.9855
措	-14.9856
嗽	-14.9857
頗	-14.9858
鍮	-14.9859
蹲	-14.986
踞	-14.9861
衍	-14.9862
畢	-14.9863
啣	-14.9864
ヽ	-14.9865
v	-14.9866
颯	-14.9867
鍛	-14.9868
迸	-14.9869
覘	-14.987
檎	-14.9871
吻	-14.9872
跪	-14.9873
蜘	-14.9874
蛛	-14.9875
笛	-14.9876
渾	-14.9877
沼	-14.9878
做	-14.9879
髴	-14.988
髣	-14.9881
餓	-14.9882
逡	-14.9883
逞	-14.9884
椎	-14.9885
慕	-14.9886
葡	-14.9887
萄	-14.9888
拡	-14.9889
佗	-14.989
葺	-14.9891
暈	-14.9892
斥	-14.9893
贔	-14.9894
燵	-14.9895
汲	-14.9896
屹	-14.9897
寞	-14.9898
饂	-14.9899
飩	-14.99
陶	-14.9901
瞥	-14.9902
甞	-14.9903
濯	-14.9904
逗	-14.9905
牢	-14.9906
娑	-14.9907
塚	-14.9908
嗜	-14.9909
喫	-14.991
蹟	-14.9911
朦	-14.9912
捧	-14.9913
妬	-14.9914
劫	-14.9915
錯	-14.9916
裟	-14.9917
袈	-14.9918
簾	-14.9919
献	-14.992
狽	-14.9921
煽	-14.9922
跨	-14.9923
敢	-14.9924
崇	-14.9925
噌	-14.9926
鹸	-14.9927
鞋	-14.9928
獰	-14.9929
泰	-14.993
謨	-14.9931
綜	-14.9932
秩	-14.9933
溝	-14.9934
泳	-14.9935
宣	-14.9936
削	-14.9937
帛	-14.9938
繻	-14.9939
憾	-14.994
庄	-14.9941
薔	-14.9942
ヶ	-14.9943
蝠	-14.9944
蝙	-14.9945
麭	-14.9946
娯	-14.9947
司	-14.9948
几	-14.9949
荘	-14.995
督	-14.9951
曖	-14.9952
骸	-14.9953
襯	-14.9954
縊	-14.9955
笥	-14.9956
犠	-14.9957
牲	-14.9958
饅	-14.9959
溶	-14.996
盗	-14.9961
玩	-14.9962
辟	-14.9963
跟	-14.9964
漕	-14.9965
吟	-14.9966
妨	-14.9967
奏	-14.9968
叶	-14.9969
f	-14.997
寿	-14.9971
掠	-14.9972
曝	-14.9973
斐	-14.9974
渦	-14.9975
酬	-14.9976
睨	-14.9977
攫	-14.9978
嗅	-14.9979
鄭	-14.998
藉	-14.9981
蕎	-14.9982
刹	-14.9983
嘆	-14.9984
敦	-14.9985
維	-14.9986
嚀	-14.9987
湧	-14.9988
整	-14.9989
躊	-14.999
ォ	-14.9991
咲	-14.9992
敏	-14.9993
圭	-14.9994
欽	-14.9995
堕	-14.9996
偵	-14.9997
巾	-14.9998
裂	-14.9999
罹	-15
距	-15.0001
審	-15.0002
殆	-15.0003
浩	-15.0004
於	-15.0005
躍	-15.0006
曜	-15.0007
暸	-15.0008
c	-15.0009
械	-15.001
汰	-15.0011
碌	-15.0012
襲	-15.0013
潰	-15.0014
紹	-15.0015
ョ	-15.0016
叔	-15.0017
制	-15.0017
碗	-15.0018
ゅ	-15.0019
惚	-15.002
弥	-15.0021
疲	-15.0022
涯	-15.0023
ァ	-15.0024
促	-15.0025
ェ	-15.0026
洩	-15.0027
硝	-15.0028
抑	-15.0029
週	-15.003
\	-15.0031
/	-15.0032
稽	-15.0033
嘩	-15.0034
蔑	-15.0035
乏	-15.0036
訊	-15.0037
廊	-15.0038
希	-15.0039
曰	-15.004
抵	-15.004
令	-15.0041
歴	-15.0042
批	-15.0043
看	-15.0044
覗	-15.0045
椅	-15.0045
沙	-15.0046
淋	-15.0047
充	-15.0048
努	-15.0049
阪	-15.0049
嬉	-15.0049
汽	-15.005
簡	-15.0051
致	-15.0052
較	-15.0053
憶	-15.0054
漱	-15.0054
挨	-15.0055
剖	-15.0056
拶	-15.0056
愉	-15.0057
眺	-15.0057
戟	-15.0057
梧	-15.0057
贅	-15.0058
襦	-15.0058
嗟	-15.0058
禰	-15.0058
經	-15.0058
第	-15.0058
ょ	-15.0059
喧	-15.0059
